{
  "version": "1.0",
  "truncation": null,
  "padding": null,
  "added_tokens": [
    {
      "id": 0,
      "content": "[UNK]",
      "single_word": false,
      "lstrip": false,
      "rstrip": false,
      "normalized": false,
      "special": true
    },
    {
      "id": 1,
      "content": "[CLS]",
      "single_word": false,
      "lstrip": false,
      "rstrip": false,
      "normalized": false,
      "special": true
    },
    {
      "id": 2,
      "content": "[SEP]",
      "single_word": false,
      "lstrip": false,
      "rstrip": false,
      "normalized": false,
      "special": true
    },
    {
      "id": 3,
      "content": "[PAD]",
      "single_word": false,
      "lstrip": false,
      "rstrip": false,
      "normalized": false,
      "special": true
    },
    {
      "id": 4,
      "content": "[MASK]",
      "single_word": false,
      "lstrip": false,
      "rstrip": false,
      "normalized": false,
      "special": true
    }
  ],
  "normalizer": null,
  "pre_tokenizer": {
    "type": "Whitespace"
  },
  "post_processor": null,
  "decoder": null,
  "model": {
    "type": "BPE",
    "dropout": null,
    "unk_token": "[UNK]",
    "continuing_subword_prefix": null,
    "end_of_word_suffix": null,
    "fuse_unk": false,
    "byte_fallback": false,
    "ignore_merges": false,
    "vocab": {
      "[UNK]": 0,
      "[CLS]": 1,
      "[SEP]": 2,
      "[PAD]": 3,
      "[MASK]": 4,
      "!": 5,
      "\"": 6,
      "#": 7,
      "$": 8,
      "%": 9,
      "&": 10,
      "'": 11,
      "(": 12,
      ")": 13,
      "*": 14,
      "+": 15,
      ",": 16,
      "-": 17,
      ".": 18,
      "/": 19,
      "0": 20,
      "1": 21,
      "2": 22,
      "3": 23,
      "4": 24,
      "5": 25,
      "6": 26,
      "7": 27,
      "8": 28,
      "9": 29,
      ":": 30,
      ";": 31,
      "<": 32,
      "=": 33,
      ">": 34,
      "?": 35,
      "@": 36,
      "A": 37,
      "B": 38,
      "C": 39,
      "D": 40,
      "E": 41,
      "F": 42,
      "G": 43,
      "H": 44,
      "I": 45,
      "J": 46,
      "K": 47,
      "L": 48,
      "M": 49,
      "N": 50,
      "O": 51,
      "P": 52,
      "Q": 53,
      "R": 54,
      "S": 55,
      "T": 56,
      "U": 57,
      "V": 58,
      "W": 59,
      "X": 60,
      "Y": 61,
      "Z": 62,
      "[": 63,
      "\\": 64,
      "]": 65,
      "_": 66,
      "`": 67,
      "a": 68,
      "b": 69,
      "c": 70,
      "d": 71,
      "e": 72,
      "f": 73,
      "g": 74,
      "h": 75,
      "i": 76,
      "j": 77,
      "k": 78,
      "l": 79,
      "m": 80,
      "n": 81,
      "o": 82,
      "p": 83,
      "q": 84,
      "r": 85,
      "s": 86,
      "t": 87,
      "u": 88,
      "v": 89,
      "w": 90,
      "x": 91,
      "y": 92,
      "z": 93,
      "|": 94,
      "~": 95,
      "": 96,
      "¦": 97,
      "¬": 98,
      "®": 99,
      "°": 100,
      "¶": 101,
      "¼": 102,
      "½": 103,
      "Â": 104,
      "Ã": 105,
      "á": 106,
      "â": 107,
      "í": 108,
      "ü": 109,
      "œ": 110,
      "˜": 111,
      "–": 112,
      "‘": 113,
      "’": 114,
      "“": 115,
      "”": 116,
      "…": 117,
      "€": 118,
      "™": 119,
      "th": 120,
      "in": 121,
      "the": 122,
      "an": 123,
      "re": 124,
      "ou": 125,
      "at": 126,
      "er": 127,
      "to": 128,
      "ing": 129,
      "on": 130,
      "en": 131,
      "is": 132,
      "or": 133,
      "and": 134,
      "le": 135,
      "he": 136,
      "as": 137,
      "om": 138,
      "it": 139,
      "al": 140,
      "es": 141,
      "of": 142,
      "ed": 143,
      "be": 144,
      "ld": 145,
      "se": 146,
      "ar": 147,
      "st": 148,
      "that": 149,
      "ve": 150,
      "ad": 151,
      "CA": 152,
      "you": 153,
      "ut": 154,
      "ow": 155,
      "ch": 156,
      "li": 157,
      "oo": 158,
      "ly": 159,
      "PS": 160,
      "CAPS": 161,
      "ay": 162,
      "me": 163,
      "wh": 164,
      "ould": 165,
      "was": 166,
      "are": 167,
      "we": 168,
      "au": 169,
      "ot": 170,
      "op": 171,
      "ri": 172,
      "ac": 173,
      "wi": 174,
      "gh": 175,
      "com": 176,
      "ver": 177,
      "ha": 178,
      "for": 179,
      "ke": 180,
      "The": 181,
      "mo": 182,
      "pe": 183,
      "out": 184,
      "id": 185,
      "ll": 186,
      "ti": 187,
      "fe": 188,
      "ir": 189,
      "ers": 190,
      "sh": 191,
      "so": 192,
      "ne": 193,
      "ge": 194,
      "put": 195,
      "ome": 196,
      "they": 197,
      "ab": 198,
      "ople": 199,
      "have": 200,
      "with": 201,
      "ent": 202,
      "thing": 203,
      "ook": 204,
      "people": 205,
      "ther": 206,
      "am": 207,
      "all": 208,
      "one": 209,
      "do": 210,
      "ic": 211,
      "us": 212,
      "not": 213,
      "comput": 214,
      "ts": 215,
      "my": 216,
      "ion": 217,
      "ild": 218,
      "can": 219,
      "ON": 220,
      "cau": 221,
      "ter": 222,
      "ro": 223,
      "if": 224,
      "cause": 225,
      "end": 226,
      "would": 227,
      "some": 228,
      "ma": 229,
      "CAPS1": 230,
      "very": 231,
      "his": 232,
      "way": 233,
      "book": 234,
      "un": 235,
      "because": 236,
      "any": 237,
      "she": 238,
      "go": 239,
      "ex": 240,
      "this": 241,
      "con": 242,
      "about": 243,
      "ce": 244,
      "ta": 245,
      "im": 246,
      "bu": 247,
      "fr": 248,
      "there": 249,
      "ant": 250,
      "te": 251,
      "get": 252,
      "ood": 253,
      "ght": 254,
      "ate": 255,
      "ry": 256,
      "ble": 257,
      "up": 258,
      "pl": 259,
      "wor": 260,
      "but": 261,
      "ul": 262,
      "ind": 263,
      "lo": 264,
      "other": 265,
      "off": 266,
      "had": 267,
      "ust": 268,
      "ive": 269,
      "gr": 270,
      "our": 271,
      "sa": 272,
      "ation": 273,
      "ting": 274,
      "like": 275,
      "now": 276,
      "br": 277,
      "ap": 278,
      "oun": 279,
      "time": 280,
      "ur": 281,
      "when": 282,
      "their": 283,
      "what": 284,
      "de": 285,
      "her": 286,
      "were": 287,
      "from": 288,
      "them": 289,
      "ink": 290,
      "should": 291,
      "computer": 292,
      "could": 293,
      "ren": 294,
      "ally": 295,
      "ure": 296,
      "ens": 297,
      "read": 298,
      "just": 299,
      "ON1": 300,
      "will": 301,
      "ies": 302,
      "think": 303,
      "cl": 304,
      "your": 305,
      "computers": 306,
      "build": 307,
      "gi": 308,
      "ga": 309,
      "sto": 310,
      "di": 311,
      "ast": 312,
      "no": 313,
      "TI": 314,
      "ct": 315,
      "fri": 316,
      "how": 317,
      "by": 318,
      "ss": 319,
      "friend": 320,
      "books": 321,
      "ough": 322,
      "day": 323,
      "brar": 324,
      "ily": 325,
      "ist": 326,
      "est": 327,
      "every": 328,
      "say": 329,
      "UM": 330,
      "NUM": 331,
      "ER": 332,
      "fam": 333,
      "things": 334,
      "sp": 335,
      "CAPS2": 336,
      "PER": 337,
      "librar": 338,
      "ound": 339,
      "ven": 340,
      "more": 341,
      "know": 342,
      "augh": 343,
      "aren": 344,
      "pro": 345,
      "ide": 346,
      "mp": 347,
      "mov": 348,
      "ater": 349,
      "king": 350,
      "then": 351,
      "uch": 352,
      "ty": 353,
      "want": 354,
      "many": 355,
      "po": 356,
      "family": 357,
      "In": 358,
      "el": 359,
      "ob": 360,
      "reat": 361,
      "gible": 362,
      "ie": 363,
      "see": 364,
      "rigible": 365,
      "pp": 366,
      "il": 367,
      "ong": 368,
      "PERS": 369,
      "ack": 370,
      "paren": 371,
      "don": 372,
      "own": 373,
      "thor": 374,
      "child": 375,
      "ves": 376,
      "hel": 377,
      "dirigible": 378,
      "able": 379,
      "It": 380,
      "laugh": 381,
      "help": 382,
      "author": 383,
      "over": 384,
      "hi": 385,
      "par": 386,
      "fac": 387,
      "also": 388,
      "building": 389,
      "ck": 390,
      "Th": 391,
      "ple": 392,
      "ine": 393,
      "life": 394,
      "happ": 395,
      "sit": 396,
      "did": 397,
      "tal": 398,
      "ati": 399,
      "ard": 400,
      "parents": 401,
      "ip": 402,
      "who": 403,
      "him": 404,
      "TION1": 405,
      "new": 406,
      "friends": 407,
      "ful": 408,
      "make": 409,
      "This": 410,
      "good": 411,
      "ensive": 412,
      "has": 413,
      "home": 414,
      "need": 415,
      "ways": 416,
      "tion": 417,
      "even": 418,
      "lf": 419,
      "whi": 420,
      "offensive": 421,
      "af": 422,
      "take": 423,
      "Wh": 424,
      "going": 425,
      "ire": 426,
      "here": 427,
      "lear": 428,
      "ship": 429,
      "story": 430,
      "bo": 431,
      "reas": 432,
      "CAPS3": 433,
      "pati": 434,
      "ous": 435,
      "too": 436,
      "ue": 437,
      "If": 438,
      "use": 439,
      "led": 440,
      "got": 441,
      "erson": 442,
      "ight": 443,
      "tr": 444,
      "ess": 445,
      "art": 446,
      "dif": 447,
      "ach": 448,
      "We": 449,
      "ving": 450,
      "ial": 451,
      "cy": 452,
      "mood": 453,
      "look": 454,
      "back": 455,
      "learn": 456,
      "pre": 457,
      "An": 458,
      "reason": 459,
      "ame": 460,
      "ort": 461,
      "des": 462,
      "find": 463,
      "person": 464,
      "something": 465,
      "most": 466,
      "said": 467,
      "red": 468,
      "much": 469,
      "library": 470,
      "work": 471,
      "ye": 472,
      "ang": 473,
      "obst": 474,
      "ill": 475,
      "show": 476,
      "cycl": 477,
      "ool": 478,
      "ity": 479,
      "try": 480,
      "ef": 481,
      "fect": 482,
      ".\"": 483,
      "kid": 484,
      "So": 485,
      "ig": 486,
      "come": 487,
      "ass": 488,
      "why": 489,
      "NUM1": 490,
      "les": 491,
      "feel": 492,
      "cyclist": 493,
      "ment": 494,
      "ature": 495,
      "LO": 496,
      "St": 497,
      "obstac": 498,
      "ence": 499,
      "than": 500,
      "LOCA": 501,
      "ade": 502,
      "ep": 503,
      "great": 504,
      "AN": 505,
      "pr": 506,
      "cis": 507,
      "OR": 508,
      "gain": 509,
      "irst": 510,
      "where": 511,
      "ite": 512,
      "usic": 513,
      "talk": 514,
      "dirigibles": 515,
      "PERSON1": 516,
      "down": 517,
      "GAN": 518,
      "IZ": 519,
      "ORGAN": 520,
      "IZA": 521,
      "ORGANIZA": 522,
      "children": 523,
      "plac": 524,
      "set": 525,
      "qu": 526,
      "wr": 527,
      "When": 528,
      "being": 529,
      "always": 530,
      "eng": 531,
      "around": 532,
      "wa": 533,
      "mpire": 534,
      "Al": 535,
      "really": 536,
      "rough": 537,
      "They": 538,
      "patient": 539,
      "into": 540,
      "music": 541,
      "old": 542,
      "right": 543,
      "CAPS4": 544,
      "age": 545,
      "grap": 546,
      "world": 547,
      "air": 548,
      "graph": 549,
      "ore": 550,
      "ree": 551,
      "inter": 552,
      "again": 553,
      "cer": 554,
      "self": 555,
      "these": 556,
      "beli": 557,
      "chool": 558,
      "TH": 559,
      "tain": 560,
      "rent": 561,
      "only": 562,
      "MON": 563,
      "side": 564,
      "school": 565,
      "There": 566,
      "ag": 567,
      "He": 568,
      "bad": 569,
      "ever": 570,
      "which": 571,
      "wait": 572,
      "agraph": 573,
      "kids": 574,
      "away": 575,
      "der": 576,
      "Empire": 577,
      "made": 578,
      "start": 579,
      "allow": 580,
      "ice": 581,
      "ON2": 582,
      "stu": 583,
      "its": 584,
      "ain": 585,
      "paragraph": 586,
      "State": 587,
      "bet": 588,
      "oring": 589,
      "su": 590,
      "been": 591,
      "diffe": 592,
      "mes": 593,
      "play": 594,
      "kes": 595,
      "imp": 596,
      "TH1": 597,
      "MONTH1": 598,
      "someone": 599,
      "low": 600,
      "aterial": 601,
      "ose": 602,
      "ated": 603,
      "dr": 604,
      "line": 605,
      "lot": 606,
      "fun": 607,
      "form": 608,
      "material": 609,
      "through": 610,
      "movies": 611,
      "water": 612,
      "never": 613,
      "top": 614,
      "itt": 615,
      "blem": 616,
      "belie": 617,
      "went": 618,
      "str": 619,
      "jo": 620,
      "co": 621,
      "different": 622,
      "problem": 623,
      "ample": 624,
      "That": 625,
      "example": 626,
      "libraries": 627,
      "iz": 628,
      "test": 629,
      "gaz": 630,
      "..": 631,
      "does": 632,
      "cus": 633,
      "mom": 634,
      "My": 635,
      "Bu": 636,
      "ans": 637,
      "ORGANIZATION1": 638,
      "Build": 639,
      "didn": 640,
      "concl": 641,
      "ouse": 642,
      "per": 643,
      "fore": 644,
      "lves": 645,
      "less": 646,
      "hard": 647,
      "believe": 648,
      "real": 649,
      "Building": 650,
      "magaz": 651,
      "la": 652,
      "memo": 653,
      "love": 654,
      "memoir": 655,
      "LOCATION1": 656,
      "Com": 657,
      "But": 658,
      "You": 659,
      "happy": 660,
      "mast": 661,
      "setting": 662,
      "um": 663,
      "ines": 664,
      "Also": 665,
      "Sa": 666,
      "soc": 667,
      "came": 668,
      "long": 669,
      "ought": 670,
      "cal": 671,
      "first": 672,
      "builders": 673,
      "keep": 674,
      "CAPS5": 675,
      "house": 676,
      "act": 677,
      "Comput": 678,
      "everyone": 679,
      "atch": 680,
      "hy": 681,
      "tur": 682,
      "tell": 683,
      "Saeng": 684,
      "che": 685,
      "et": 686,
      "fin": 687,
      "says": 688,
      "still": 689,
      "hand": 690,
      "dri": 691,
      "better": 692,
      "ub": 693,
      "times": 694,
      "let": 695,
      "ensor": 696,
      "Computers": 697,
      "though": 698,
      "such": 699,
      "mem": 700,
      "turn": 701,
      "For": 702,
      "ked": 703,
      "dock": 704,
      "ittle": 705,
      "place": 706,
      "cts": 707,
      "creat": 708,
      "wind": 709,
      "faced": 710,
      "obstacles": 711,
      "ction": 712,
      "dy": 713,
      "little": 714,
      "vi": 715,
      "??": 716,
      "spe": 717,
      "gen": 718,
      "used": 719,
      "ult": 720,
      "int": 721,
      "affect": 722,
      "ved": 723,
      "iscus": 724,
      "inform": 725,
      "One": 726,
      "coun": 727,
      "Some": 728,
      "ear": 729,
      "pt": 730,
      "high": 731,
      "ance": 732,
      "AT": 733,
      "E1": 734,
      "import": 735,
      "spend": 736,
      "cont": 737,
      "sc": 738,
      "found": 739,
      "min": 740,
      "those": 741,
      "ather": 742,
      "eas": 743,
      "arcis": 744,
      "year": 745,
      "arciso": 746,
      "hour": 747,
      "wo": 748,
      "biscus": 749,
      "Narciso": 750,
      "watch": 751,
      "dis": 752,
      "ol": 753,
      "mi": 754,
      "She": 755,
      "joy": 756,
      "comm": 757,
      "might": 758,
      "ste": 759,
      "pic": 760,
      "same": 761,
      "important": 762,
      "DAT": 763,
      "tow": 764,
      "information": 765,
      "another": 766,
      "fl": 767,
      "CAPS6": 768,
      "certain": 769,
      "mooring": 770,
      "reading": 771,
      "Another": 772,
      "magazines": 773,
      "give": 774,
      "And": 775,
      "arch": 776,
      "iety": 777,
      "clo": 778,
      "net": 779,
      "shelves": 780,
      "shows": 781,
      "censor": 782,
      "laughter": 783,
      "ning": 784,
      "happen": 785,
      "getting": 786,
      "car": 787,
      "online": 788,
      "while": 789,
      "NUM2": 790,
      "ave": 791,
      "stay": 792,
      "started": 793,
      "safe": 794,
      "stand": 795,
      "big": 796,
      "add": 797,
      "\"@": 798,
      "ents": 799,
      "pass": 800,
      "last": 801,
      "list": 802,
      "cond": 803,
      "teach": 804,
      "rel": 805,
      "well": 806,
      "hop": 807,
      "each": 808,
      "everything": 809,
      "moved": 810,
      "thought": 811,
      "hed": 812,
      "ates": 813,
      "face": 814,
      "rest": 815,
      "tri": 816,
      "arm": 817,
      "anything": 818,
      "As": 819,
      "ten": 820,
      "wal": 821,
      "two": 822,
      "society": 823,
      "laughing": 824,
      "enjoy": 825,
      "having": 826,
      "ding": 827,
      "ber": 828,
      "Pe": 829,
      "doing": 830,
      "told": 831,
      "inion": 832,
      "tic": 833,
      "fa": 834,
      "hibiscus": 835,
      "kind": 836,
      "Ne": 837,
      "TION2": 838,
      "People": 839,
      "word": 840,
      "after": 841,
      "room": 842,
      "outside": 843,
      "law": 844,
      "body": 845,
      "nature": 846,
      "obstacle": 847,
      "best": 848,
      "ft": 849,
      "under": 850,
      "before": 851,
      "grate": 852,
      "New": 853,
      "nex": 854,
      "wanted": 855,
      "others": 856,
      "ext": 857,
      "shelf": 858,
      "opinion": 859,
      "ames": 860,
      "ken": 861,
      "ng": 862,
      "dro": 863,
      "DATE1": 864,
      ".”": 865,
      "listen": 866,
      "sing": 867,
      "commun": 868,
      "PERSON2": 869,
      "next": 870,
      "movie": 871,
      "internet": 872,
      "Mo": 873,
      "without": 874,
      "conclu": 875,
      "bl": 876,
      "gy": 877,
      "je": 878,
      "press": 879,
      "created": 880,
      "dont": 881,
      "mind": 882,
      "ants": 883,
      "beg": 884,
      "lt": 885,
      "effect": 886,
      "aper": 887,
      "mean": 888,
      "web": 889,
      "cr": 890,
      "ress": 891,
      "young": 892,
      "temp": 893,
      "Ro": 894,
      "gether": 895,
      "grateful": 896,
      "cur": 897,
      "ually": 898,
      "igh": 899,
      "makes": 900,
      "won": 901,
      "together": 902,
      "ci": 903,
      "ating": 904,
      "hope": 905,
      "feature": 906,
      "trying": 907,
      "ff": 908,
      "left": 909,
      "drogen": 910,
      "Then": 911,
      "ces": 912,
      "ban": 913,
      "din": 914,
      "games": 915,
      "lic": 916,
      "realiz": 917,
      "gue": 918,
      "ish": 919,
      "plain": 920,
      "materials": 921,
      "posit": 922,
      "med": 923,
      "move": 924,
      "point": 925,
      "ben": 926,
      "ser": 927,
      "CAPS7": 928,
      "exer": 929,
      "else": 930,
      "land": 931,
      "talking": 932,
      "bro": 933,
      "man": 934,
      "took": 935,
      "town": 936,
      "ring": 937,
      "gu": 938,
      "ited": 939,
      "done": 940,
      "head": 941,
      "idea": 942,
      "censorship": 943,
      "enough": 944,
      "ign": 945,
      "dad": 946,
      "stop": 947,
      "search": 948,
      "taken": 949,
      "nothing": 950,
      "stud": 951,
      "hydrogen": 952,
      "ended": 953,
      "Dear": 954,
      "ask": 955,
      "ense": 956,
      "exercis": 957,
      "ships": 958,
      "ith": 959,
      "doesn": 960,
      "sed": 961,
      "live": 962,
      "wouldn": 963,
      "mat": 964,
      "reasons": 965,
      "cid": 966,
      "attemp": 967,
      "mother": 968,
      "ations": 969,
      "ary": 970,
      "ready": 971,
      "saying": 972,
      "prop": 973,
      "gir": 974,
      "type": 975,
      "features": 976,
      "cess": 977,
      "stead": 978,
      "eye": 979,
      "ange": 980,
      "cri": 981,
      "agree": 982,
      "Every": 983,
      "part": 984,
      "fre": 985,
      "viol": 986,
      "girl": 987,
      "sup": 988,
      "far": 989,
      "removed": 990,
      "using": 991,
      "patience": 992,
      "tor": 993,
      "guez": 994,
      "driguez": 995,
      "country": 996,
      "Rodriguez": 997,
      "hot": 998,
      "yes": 999,
      "ition": 1000,
      "Li": 1001,
      "making": 1002,
      "hours": 1003,
      "All": 1004,
      "ase": 1005,
      "ness": 1006,
      "dang": 1007,
      "ese": 1008,
      "With": 1009,
      "wrong": 1010,
      "area": 1011,
      "ph": 1012,
      "fly": 1013,
      "ier": 1014,
      "usion": 1015,
      "writ": 1016,
      "few": 1017,
      "whole": 1018,
      "ick": 1019,
      "vide": 1020,
      "taking": 1021,
      "positive": 1022,
      "open": 1023,
      "today": 1024,
      "uc": 1025,
      "ride": 1026,
      "vel": 1027,
      "Af": 1028,
      "mis": 1029,
      "state": 1030,
      "ted": 1031,
      "After": 1032,
      "These": 1033,
      "understand": 1034,
      "To": 1035,
      "ince": 1036,
      "problems": 1037,
      "ative": 1038,
      "acti": 1039,
      "care": 1040,
      "lives": 1041,
      "places": 1042,
      "almost": 1043,
      "sur": 1044,
      "vent": 1045,
      "stuff": 1046,
      "res": 1047,
      "looking": 1048,
      "ms": 1049,
      "road": 1050,
      "couldn": 1051,
      "winds": 1052,
      "tech": 1053,
      "EN": 1054,
      "conclusion": 1055,
      "job": 1056,
      "stant": 1057,
      "ote": 1058,
      "ny": 1059,
      "unti": 1060,
      "frame": 1061,
      "comes": 1062,
      "ings": 1063,
      "become": 1064,
      "On": 1065,
      "deser": 1066,
      "pub": 1067,
      "fic": 1068,
      "riate": 1069,
      "class": 1070,
      "ped": 1071,
      "spring": 1072,
      "waiting": 1073,
      "Do": 1074,
      "wasn": 1075,
      "concludes": 1076,
      "exper": 1077,
      "communic": 1078,
      "hill": 1079,
      "websit": 1080,
      "sk": 1081,
      "fects": 1082,
      "ON3": 1083,
      "ull": 1084,
      "benef": 1085,
      "nolo": 1086,
      "stress": 1087,
      "ug": 1088,
      "pop": 1089,
      "approp": 1090,
      "both": 1091,
      "bor": 1092,
      "bab": 1093,
      "cor": 1094,
      "shouldn": 1095,
      "ures": 1096,
      "sm": 1097,
      "strong": 1098,
      "ace": 1099,
      "coming": 1100,
      "sure": 1101,
      "vie": 1102,
      "ENT": 1103,
      "Be": 1104,
      "minut": 1105,
      "Now": 1106,
      "run": 1107,
      "hur": 1108,
      "sim": 1109,
      "until": 1110,
      "due": 1111,
      "heal": 1112,
      "poss": 1113,
      "member": 1114,
      "days": 1115,
      "hood": 1116,
      "brother": 1117,
      "CENT": 1118,
      "PERCENT": 1119,
      "view": 1120,
      "hear": 1121,
      "ia": 1122,
      "words": 1123,
      "chang": 1124,
      "iness": 1125,
      "game": 1126,
      "ak": 1127,
      "cour": 1128,
      "plant": 1129,
      "ject": 1130,
      "CAPS8": 1131,
      "ults": 1132,
      "years": 1133,
      "technolo": 1134,
      "knew": 1135,
      "grow": 1136,
      "aybe": 1137,
      "check": 1138,
      "health": 1139,
      "Laugh": 1140,
      "dination": 1141,
      "lim": 1142,
      "plan": 1143,
      "How": 1144,
      "main": 1145,
      "geese": 1146,
      "close": 1147,
      "Not": 1148,
      "second": 1149,
      "matter": 1150,
      "port": 1151,
      "change": 1152,
      "doc": 1153,
      "sent": 1154,
      "fact": 1155,
      "flam": 1156,
      "chat": 1157,
      "door": 1158,
      "ork": 1159,
      "instead": 1160,
      "funny": 1161,
      "once": 1162,
      "asked": 1163,
      "affected": 1164,
      "public": 1165,
      "sted": 1166,
      "attempting": 1167,
      "ones": 1168,
      "illed": 1169,
      "First": 1170,
      "cen": 1171,
      "flow": 1172,
      "video": 1173,
      "star": 1174,
      "possi": 1175,
      "felt": 1176,
      "section": 1177,
      "NUM3": 1178,
      "si": 1179,
      "leg": 1180,
      "needed": 1181,
      "technology": 1182,
      "areas": 1183,
      "coor": 1184,
      "finally": 1185,
      "alot": 1186,
      "adv": 1187,
      "begin": 1188,
      "gre": 1189,
      "mail": 1190,
      "against": 1191,
      "ball": 1192,
      "inte": 1193,
      "ks": 1194,
      "na": 1195,
      "oney": 1196,
      "\".": 1197,
      ").": 1198,
      "warm": 1199,
      "sis": 1200,
      "teen": 1201,
      "York": 1202,
      "Many": 1203,
      "fort": 1204,
      "violent": 1205,
      "What": 1206,
      "minutes": 1207,
      "danger": 1208,
      "cho": 1209,
      "???": 1210,
      "men": 1211,
      "ared": 1212,
      "Fin": 1213,
      "pict": 1214,
      "Cub": 1215,
      "ious": 1216,
      "remember": 1217,
      "appropriate": 1218,
      "ual": 1219,
      "saw": 1220,
      "helps": 1221,
      "Even": 1222,
      "Last": 1223,
      "ath": 1224,
      "anyone": 1225,
      "playing": 1226,
      "lead": 1227,
      "means": 1228,
      "bi": 1229,
      "cult": 1230,
      "mon": 1231,
      "exercise": 1232,
      "call": 1233,
      "called": 1234,
      "Most": 1235,
      "descri": 1236,
      "money": 1237,
      "coordination": 1238,
      "ner": 1239,
      "explain": 1240,
      "spaper": 1241,
      "adults": 1242,
      "three": 1243,
      "research": 1244,
      "ross": 1245,
      "bud": 1246,
      "ont": 1247,
      "ORGANIZATION2": 1248,
      "students": 1249,
      "ili": 1250,
      "looked": 1251,
      "memor": 1252,
      "LOCATION2": 1253,
      "relation": 1254,
      "etc": 1255,
      "popul": 1256,
      "situ": 1257,
      "bus": 1258,
      "seen": 1259,
      "“@": 1260,
      "hum": 1261,
      "ise": 1262,
      "rather": 1263,
      "forget": 1264,
      "experi": 1265,
      "sored": 1266,
      "urban": 1267,
      "highly": 1268,
      "sister": 1269,
      "grand": 1270,
      "...": 1271,
      "bur": 1272,
      "stantly": 1273,
      "feeling": 1274,
      "past": 1275,
      "ility": 1276,
      "simple": 1277,
      "eyes": 1278,
      "wants": 1279,
      "kept": 1280,
      "dist": 1281,
      "snow": 1282,
      "tory": 1283,
      "safety": 1284,
      "Finally": 1285,
      "fo": 1286,
      "ousand": 1287,
      "rents": 1288,
      "censored": 1289,
      "oud": 1290,
      "educ": 1291,
      "selves": 1292,
      "buy": 1293,
      "vis": 1294,
      "Well": 1295,
      "enter": 1296,
      "phone": 1297,
      "heat": 1298,
      "turned": 1299,
      "since": 1300,
      "Laughter": 1301,
      "aw": 1302,
      "ling": 1303,
      "mable": 1304,
      "flying": 1305,
      "thousand": 1306,
      "states": 1307,
      "ither": 1308,
      "hills": 1309,
      "em": 1310,
      "short": 1311,
      "decid": 1312,
      "topic": 1313,
      "sometimes": 1314,
      "front": 1315,
      "interest": 1316,
      "learning": 1317,
      "full": 1318,
      "wee": 1319,
      "ude": 1320,
      "lling": 1321,
      "neg": 1322,
      "flammable": 1323,
      "bed": 1324,
      "parent": 1325,
      "airships": 1326,
      "remove": 1327,
      "ends": 1328,
      "happened": 1329,
      "maybe": 1330,
      "drop": 1331,
      "ned": 1332,
      "No": 1333,
      "bre": 1334,
      "bas": 1335,
      "cre": 1336,
      "comple": 1337,
      "learned": 1338,
      "ud": 1339,
      "reader": 1340,
      "currents": 1341,
      "limp": 1342,
      "easy": 1343,
      "realized": 1344,
      "myself": 1345,
      "enti": 1346,
      "uring": 1347,
      "typ": 1348,
      "az": 1349,
      "gives": 1350,
      "famili": 1351,
      "CAPS9": 1352,
      "sad": 1353,
      "gave": 1354,
      "write": 1355,
      "boy": 1356,
      "ced": 1357,
      "isn": 1358,
      "ars": 1359,
      "mid": 1360,
      "hun": 1361,
      "neigh": 1362,
      "websites": 1363,
      "ove": 1364,
      "reli": 1365,
      "takes": 1366,
      "homework": 1367,
      "lang": 1368,
      "vers": 1369,
      "exc": 1370,
      "ouch": 1371,
      "sat": 1372,
      "excer": 1373,
      "stru": 1374,
      "hydr": 1375,
      "bably": 1376,
      "'@": 1377,
      "constantly": 1378,
      "ques": 1379,
      "hold": 1380,
      "food": 1381,
      "conf": 1382,
      "writing": 1383,
      "neighbor": 1384,
      "At": 1385,
      "Just": 1386,
      "av": 1387,
      "song": 1388,
      "magazine": 1389,
      "sac": 1390,
      "express": 1391,
      "smi": 1392,
      "mag": 1393,
      "langu": 1394,
      "thats": 1395,
      "ump": 1396,
      "comp": 1397,
      "ird": 1398,
      "dire": 1399,
      "ills": 1400,
      "probably": 1401,
      "iled": 1402,
      "pick": 1403,
      "blimp": 1404,
      "ently": 1405,
      "scre": 1406,
      "ses": 1407,
      "leave": 1408,
      "waited": 1409,
      "grou": 1410,
      "thank": 1411,
      "night": 1412,
      "everyday": 1413,
      "fast": 1414,
      "goes": 1415,
      "walk": 1416,
      "ons": 1417,
      "group": 1418,
      "cle": 1419,
      "fut": 1420,
      "return": 1421,
      "least": 1422,
      "question": 1423,
      "spending": 1424,
      "social": 1425,
      "por": 1426,
      "Un": 1427,
      "shif": 1428,
      "desert": 1429,
      "true": 1430,
      "rain": 1431,
      "sitting": 1432,
      "pret": 1433,
      "language": 1434,
      "sub": 1435,
      "decided": 1436,
      "nice": 1437,
      "fire": 1438,
      "loved": 1439,
      "Lastly": 1440,
      "later": 1441,
      "dehydr": 1442,
      "store": 1443,
      "oot": 1444,
      "negative": 1445,
      "ele": 1446,
      "edom": 1447,
      "ards": 1448,
      "paper": 1449,
      "easier": 1450,
      "pur": 1451,
      "ok": 1452,
      "future": 1453,
      "must": 1454,
      "rac": 1455,
      "vir": 1456,
      "ability": 1457,
      "actually": 1458,
      "stren": 1459,
      "weight": 1460,
      "hurt": 1461,
      "ceed": 1462,
      "bring": 1463,
      "ledge": 1464,
      "effects": 1465,
      "PERCENT1": 1466,
      "dangerous": 1467,
      "excerpt": 1468,
      "Whi": 1469,
      "dest": 1470,
      "filled": 1471,
      "adult": 1472,
      "CAPS11": 1473,
      "extre": 1474,
      "above": 1475,
      "hind": 1476,
      "lau": 1477,
      "needs": 1478,
      "budding": 1479,
      "cam": 1480,
      "aving": 1481,
      "gets": 1482,
      "buildings": 1483,
      "lack": 1484,
      "aster": 1485,
      "ities": 1486,
      "often": 1487,
      "col": 1488,
      ",\"": 1489,
      "nor": 1490,
      "already": 1491,
      "sy": 1492,
      "ending": 1493,
      "sense": 1494,
      "ical": 1495,
      "possible": 1496,
      "ments": 1497,
      "imply": 1498,
      "ru": 1499,
      "heard": 1500,
      "conne": 1501,
      "uge": 1502,
      "sid": 1503,
      "ween": 1504,
      "deter": 1505,
      "PERSON3": 1506,
      "inside": 1507,
      "education": 1508,
      "cook": 1509,
      "freedom": 1510,
      "Se": 1511,
      "streng": 1512,
      "itch": 1513,
      "situation": 1514,
      "sacri": 1515,
      "modif": 1516,
      "sol": 1517,
      "offended": 1518,
      "memories": 1519,
      "row": 1520,
      "ali": 1521,
      "lium": 1522,
      "herself": 1523,
      "quick": 1524,
      "Book": 1525,
      "trave": 1526,
      "diffic": 1527,
      "contro": 1528,
      "lost": 1529,
      "watching": 1530,
      "along": 1531,
      "working": 1532,
      "sex": 1533,
      "winter": 1534,
      "light": 1535,
      "soon": 1536,
      "vor": 1537,
      "sun": 1538,
      "across": 1539,
      "happiness": 1540,
      "Everyone": 1541,
      "between": 1542,
      "vid": 1543,
      "relationship": 1544,
      "knowledge": 1545,
      "allowed": 1546,
      "suc": 1547,
      "flower": 1548,
      "oose": 1549,
      "trip": 1550,
      "hal": 1551,
      "swi": 1552,
      "simply": 1553,
      "Cuban": 1554,
      "pped": 1555,
      "benefit": 1556,
      "od": 1557,
      "ouble": 1558,
      "CAPS10": 1559,
      "TIM": 1560,
      "moving": 1561,
      "hor": 1562,
      "talks": 1563,
      "practi": 1564,
      "archite": 1565,
      "order": 1566,
      "comfort": 1567,
      "mad": 1568,
      "helium": 1569,
      "blo": 1570,
      "ran": 1571,
      "loving": 1572,
      "gener": 1573,
      "Books": 1574,
      "shifting": 1575,
      "legal": 1576,
      "touch": 1577,
      "mor": 1578,
      "messa": 1579,
      "tru": 1580,
      "aut": 1581,
      "ghed": 1582,
      "cept": 1583,
      "entertain": 1584,
      "lar": 1585,
      "complete": 1586,
      "hes": 1587,
      "itself": 1588,
      "rid": 1589,
      "helpful": 1590,
      "small": 1591,
      "iss": 1592,
      "thinking": 1593,
      "bes": 1594,
      "whe": 1595,
      "spec": 1596,
      "pretty": 1597,
      "laughed": 1598,
      "free": 1599,
      "huge": 1600,
      "deal": 1601,
      "However": 1602,
      "bit": 1603,
      "older": 1604,
      "ions": 1605,
      "project": 1606,
      "ctions": 1607,
      "teacher": 1608,
      "six": 1609,
      "behind": 1610,
      "By": 1611,
      "pose": 1612,
      "communicate": 1613,
      "half": 1614,
      "nt": 1615,
      "extreme": 1616,
      "hang": 1617,
      "cted": 1618,
      "name": 1619,
      "Because": 1620,
      "pay": 1621,
      "ins": 1622,
      "facebook": 1623,
      "(@": 1624,
      "weather": 1625,
      "gl": 1626,
      "quote": 1627,
      "yet": 1628,
      "contin": 1629,
      "failed": 1630,
      ",”": 1631,
      "cool": 1632,
      "ically": 1633,
      "ched": 1634,
      "choice": 1635,
      "local": 1636,
      "artic": 1637,
      "near": 1638,
      "seeing": 1639,
      "foot": 1640,
      "sil": 1641,
      "ond": 1642,
      "determin": 1643,
      "fi": 1644,
      "sign": 1645,
      "cut": 1646,
      "trouble": 1647,
      "tried": 1648,
      "culture": 1649,
      "oc": 1650,
      "TIME1": 1651,
      "guy": 1652,
      "cou": 1653,
      "wonder": 1654,
      "als": 1655,
      "cous": 1656,
      "ights": 1657,
      "pictures": 1658,
      "action": 1659,
      "une": 1660,
      "essay": 1661,
      "inst": 1662,
      "content": 1663,
      "feet": 1664,
      "walked": 1665,
      "cially": 1666,
      "themselves": 1667,
      "posed": 1668,
      "Censor": 1669,
      "populated": 1670,
      "feels": 1671,
      "lit": 1672,
      "incl": 1673,
      "exp": 1674,
      "began": 1675,
      "experience": 1676,
      "healthy": 1677,
      "jor": 1678,
      "Mast": 1679,
      "greatest": 1680,
      "addic": 1681,
      "worse": 1682,
      "Censorship": 1683,
      "passed": 1684,
      "ished": 1685,
      "either": 1686,
      "history": 1687,
      "Mooring": 1688,
      "smile": 1689,
      "illegal": 1690,
      "gg": 1691,
      "major": 1692,
      "Librar": 1693,
      "limit": 1694,
      "fice": 1695,
      "amoun": 1696,
      "States": 1697,
      "iet": 1698,
      "personal": 1699,
      "heart": 1700,
      "complain": 1701,
      "chance": 1702,
      "ground": 1703,
      "cent": 1704,
      "Ex": 1705,
      "favor": 1706,
      "advan": 1707,
      "architects": 1708,
      "skills": 1709,
      "neighborhood": 1710,
      "seem": 1711,
      "key": 1712,
      "bike": 1713,
      "leep": 1714,
      "Although": 1715,
      "week": 1716,
      "inv": 1717,
      "sacrifice": 1718,
      "fall": 1719,
      "drink": 1720,
      "during": 1721,
      "gone": 1722,
      "defin": 1723,
      "ages": 1724,
      "four": 1725,
      "eat": 1726,
      "ize": 1727,
      "sever": 1728,
      "char": 1729,
      "living": 1730,
      "drug": 1731,
      "Second": 1732,
      "month": 1733,
      "hit": 1734,
      "helped": 1735,
      "remind": 1736,
      "contain": 1737,
      "Like": 1738,
      "nam": 1739,
      "rom": 1740,
      "slow": 1741,
      "United": 1742,
      "concer": 1743,
      "TION3": 1744,
      "tells": 1745,
      "became": 1746,
      "grade": 1747,
      "news": 1748,
      "terrain": 1749,
      "num": 1750,
      "ris": 1751,
      "beaut": 1752,
      "llow": 1753,
      "PERSON": 1754,
      "creates": 1755,
      "difficult": 1756,
      "sound": 1757,
      "ark": 1758,
      "meet": 1759,
      "worth": 1760,
      "families": 1761,
      "couple": 1762,
      "choose": 1763,
      "atever": 1764,
      "dec": 1765,
      "jobs": 1766,
      "pie": 1767,
      "att": 1768,
      "ideas": 1769,
      "telling": 1770,
      "large": 1771,
      "load": 1772,
      "ries": 1773,
      "newspaper": 1774,
      "running": 1775,
      "Libraries": 1776,
      "His": 1777,
      "envir": 1778,
      "NUM4": 1779,
      "issue": 1780,
      "team": 1781,
      "types": 1782,
      "ton": 1783,
      "tired": 1784,
      "community": 1785,
      "growing": 1786,
      "email": 1787,
      "isting": 1788,
      "easily": 1789,
      "beginning": 1790,
      "wer": 1791,
      "cident": 1792,
      "bar": 1793,
      "ener": 1794,
      "lose": 1795,
      "stree": 1796,
      "fail": 1797,
      "text": 1798,
      "jects": 1799,
      "den": 1800,
      "dle": 1801,
      "bers": 1802,
      "unch": 1803,
      "swe": 1804,
      "inappropriate": 1805,
      "orts": 1806,
      "affects": 1807,
      "walking": 1808,
      "tors": 1809,
      "shop": 1810,
      "realize": 1811,
      "thankful": 1812,
      "imag": 1813,
      "meant": 1814,
      "courage": 1815,
      "docking": 1816,
      "Our": 1817,
      "whatever": 1818,
      "brought": 1819,
      "yourself": 1820,
      "itude": 1821,
      "!\"": 1822,
      "forn": 1823,
      "seemed": 1824,
      "cry": 1825,
      "changed": 1826,
      "die": 1827,
      "friendship": 1828,
      "landing": 1829,
      "extremely": 1830,
      "rop": 1831,
      "favorite": 1832,
      "fornia": 1833,
      "ake": 1834,
      "clear": 1835,
      "uses": 1836,
      "ints": 1837,
      "final": 1838,
      "fine": 1839,
      "amount": 1840,
      "Hi": 1841,
      "amaz": 1842,
      "cas": 1843,
      "exercising": 1844,
      "ech": 1845,
      "vow": 1846,
      "itchen": 1847,
      "city": 1848,
      "cant": 1849,
      "round": 1850,
      "single": 1851,
      "media": 1852,
      "cooking": 1853,
      "val": 1854,
      "ref": 1855,
      "consid": 1856,
      "appro": 1857,
      "knowing": 1858,
      "driving": 1859,
      "talked": 1860,
      "bir": 1861,
      "knows": 1862,
      "ded": 1863,
      "DATE": 1864,
      "blood": 1865,
      "harm": 1866,
      "played": 1867,
      "communication": 1868,
      "dehydrated": 1869,
      "aking": 1870,
      "arri": 1871,
      "kitchen": 1872,
      "childhood": 1873,
      "birth": 1874,
      "fight": 1875,
      "June": 1876,
      "faster": 1877,
      "uck": 1878,
      "break": 1879,
      "existing": 1880,
      "father": 1881,
      "riding": 1882,
      "upset": 1883,
      "opinions": 1884,
      "younger": 1885,
      "While": 1886,
      "five": 1887,
      "ho": 1888,
      "bigg": 1889,
      "ket": 1890,
      "teenag": 1891,
      "article": 1892,
      "Hibiscus": 1893,
      "....": 1894,
      "consider": 1895,
      "Its": 1896,
      "accident": 1897,
      "items": 1898,
      "Ch": 1899,
      "empire": 1900,
      "ied": 1901,
      "doll": 1902,
      "sidered": 1903,
      "pri": 1904,
      "considered": 1905,
      "grad": 1906,
      "Cali": 1907,
      "upon": 1908,
      "Being": 1909,
      "California": 1910,
      "iful": 1911,
      "space": 1912,
      "showed": 1913,
      "throughout": 1914,
      "speed": 1915,
      "tive": 1916,
      "present": 1917,
      "student": 1918,
      "middle": 1919,
      "ney": 1920,
      "usually": 1921,
      "Newspaper": 1922,
      "whether": 1923,
      "harder": 1924,
      "burg": 1925,
      "practical": 1926,
      "ping": 1927,
      "Once": 1928,
      "fair": 1929,
      "estri": 1930,
      "everybody": 1931,
      "ash": 1932,
      "Without": 1933,
      "rated": 1934,
      "sna": 1935,
      "answer": 1936,
      "flat": 1937,
      "support": 1938,
      "success": 1939,
      "?\"": 1940,
      "jour": 1941,
      "vo": 1942,
      "ward": 1943,
      "drugs": 1944,
      "ail": 1945,
      "course": 1946,
      "environ": 1947,
      "tie": 1948,
      "event": 1949,
      "ank": 1950,
      "giving": 1951,
      "perfect": 1952,
      "ugg": 1953,
      "EY": 1954,
      "melt": 1955,
      "hands": 1956,
      "migr": 1957,
      "pedestri": 1958,
      "confid": 1959,
      "pow": 1960,
      "thirst": 1961,
      "leaving": 1962,
      "tries": 1963,
      "pressure": 1964,
      "describes": 1965,
      "control": 1966,
      "acting": 1967,
      "Those": 1968,
      "directions": 1969,
      "fit": 1970,
      "ences": 1971,
      "spent": 1972,
      "ps": 1973,
      "likely": 1974,
      "finds": 1975,
      "vious": 1976,
      "enjoying": 1977,
      "amazing": 1978,
      "ular": 1979,
      "longer": 1980,
      "listening": 1981,
      "environment": 1982,
      "ago": 1983,
      "espe": 1984,
      "wel": 1985,
      "roy": 1986,
      "seems": 1987,
      "allows": 1988,
      "swivel": 1989,
      "pedestrians": 1990,
      "erature": 1991,
      "dred": 1992,
      "ator": 1993,
      "lets": 1994,
      "held": 1995,
      "notic": 1996,
      "ific": 1997,
      "follow": 1998,
      "beautiful": 1999,
      "exact": 2000,
      "fresh": 2001,
      "completely": 2002,
      "caused": 2003,
      "members": 2004,
      "several": 2005,
      ".'": 2006,
      "rible": 2007,
      "girls": 2008,
      "journey": 2009,
      "Pati": 2010,
      "Re": 2011,
      "cold": 2012,
      "table": 2013,
      "wat": 2014,
      "given": 2015,
      "rolling": 2016,
      "worry": 2017,
      "okay": 2018,
      "cannot": 2019,
      "entire": 2020,
      "hundred": 2021,
      "flo": 2022,
      "inc": 2023,
      "website": 2024,
      "screen": 2025,
      "CAPS12": 2026,
      "constru": 2027,
      "immigr": 2028,
      "Over": 2029,
      "study": 2030,
      "towards": 2031,
      "activ": 2032,
      "create": 2033,
      "CAPS13": 2034,
      "moment": 2035,
      "ra": 2036,
      "ately": 2037,
      "offend": 2038,
      "MONEY": 2039,
      "fish": 2040,
      "miles": 2041,
      "pain": 2042,
      "interact": 2043,
      "especially": 2044,
      "ached": 2045,
      "entertainment": 2046,
      "bly": 2047,
      "bot": 2048,
      "weights": 2049,
      "catch": 2050,
      "sites": 2051,
      "greatful": 2052,
      "enburg": 2053,
      "lived": 2054,
      "serious": 2055,
      "subject": 2056,
      "fer": 2057,
      "stated": 2058,
      "gotten": 2059,
      "banned": 2060,
      "starts": 2061,
      "excited": 2062,
      "access": 2063,
      "sour": 2064,
      "decis": 2065,
      "thinks": 2066,
      "sum": 2067,
      "mention": 2068,
      "destroy": 2069,
      "From": 2070,
      "adap": 2071,
      "picture": 2072,
      "pa": 2073,
      "anymore": 2074,
      "teens": 2075,
      "fully": 2076,
      "speech": 2077,
      "interesting": 2078,
      "case": 2079,
      "energy": 2080,
      "power": 2081,
      "Smi": 2082,
      "resp": 2083,
      "park": 2084,
      "Smith": 2085,
      "sleep": 2086,
      "chall": 2087,
      "itten": 2088,
      "meaning": 2089,
      "lots": 2090,
      "purpose": 2091,
      "ev": 2092,
      "expl": 2093,
      "loves": 2094,
      "overcome": 2095,
      "alone": 2096,
      "fell": 2097,
      "known": 2098,
      "explains": 2099,
      "Hind": 2100,
      "mask": 2101,
      "cele": 2102,
      "count": 2103,
      "message": 2104,
      "Hindenburg": 2105,
      "cover": 2106,
      "da": 2107,
      "dense": 2108,
      "prevent": 2109,
      "dollars": 2110,
      "sha": 2111,
      "Sometimes": 2112,
      "blimps": 2113,
      "Have": 2114,
      "gram": 2115,
      "norm": 2116,
      "peed": 2117,
      "readers": 2118,
      "Po": 2119,
      "till": 2120,
      "proud": 2121,
      "flu": 2122,
      "cub": 2123,
      "third": 2124,
      "imit": 2125,
      "sports": 2126,
      "starting": 2127,
      "cousin": 2128,
      "\",": 2129,
      "dep": 2130,
      "ensoring": 2131,
      "strengthen": 2132,
      "quickly": 2133,
      "war": 2134,
      "dinner": 2135,
      "drive": 2136,
      "celebr": 2137,
      "mature": 2138,
      "stopped": 2139,
      "tention": 2140,
      "apart": 2141,
      "authors": 2142,
      "written": 2143,
      "human": 2144,
      "piece": 2145,
      "send": 2146,
      "ased": 2147,
      "likes": 2148,
      "aught": 2149,
      "design": 2150,
      "quite": 2151,
      "calm": 2152,
      "cultures": 2153,
      "clean": 2154,
      "moo": 2155,
      "met": 2156,
      "save": 2157,
      "greatly": 2158,
      "sentence": 2159,
      "solut": 2160,
      "ply": 2161,
      "reg": 2162,
      "reach": 2163,
      "rela": 2164,
      "foundation": 2165,
      "kinds": 2166,
      "comfortable": 2167,
      "densely": 2168,
      "ined": 2169,
      "Why": 2170,
      "Therefore": 2171,
      "closer": 2172,
      "rap": 2173,
      "accom": 2174,
      "unity": 2175,
      "cture": 2176,
      "cked": 2177,
      "miss": 2178,
      "baby": 2179,
      "travel": 2180,
      "mil": 2181,
      "useful": 2182,
      "preci": 2183,
      "aches": 2184,
      "board": 2185,
      "mostly": 2186,
      "suit": 2187,
      "noticed": 2188,
      "cul": 2189,
      "phy": 2190,
      "accept": 2191,
      "cost": 2192,
      "speak": 2193,
      "date": 2194,
      "stories": 2195,
      "showing": 2196,
      "Since": 2197,
      "schools": 2198,
      "steel": 2199,
      "relax": 2200,
      "var": 2201,
      "seas": 2202,
      "CAPS14": 2203,
      "emot": 2204,
      "Rough": 2205,
      "cli": 2206,
      "saeng": 2207,
      "prove": 2208,
      "works": 2209,
      "jokes": 2210,
      "condition": 2211,
      "Speed": 2212,
      "gas": 2213,
      "step": 2214,
      "aprop": 2215,
      "LOCATION3": 2216,
      "wont": 2217,
      "fix": 2218,
      "attention": 2219,
      "Exceed": 2220,
      "number": 2221,
      "PERSON4": 2222,
      "phys": 2223,
      ".,": 2224,
      "Limit": 2225,
      "Or": 2226,
      "violence": 2227,
      "changes": 2228,
      "street": 2229,
      "rec": 2230,
      "Lo": 2231,
      "hon": 2232,
      "Thats": 2233,
      "forever": 2234,
      "colle": 2235,
      "MONEY1": 2236,
      "respe": 2237,
      "sho": 2238,
      "placed": 2239,
      "selfless": 2240,
      "letter": 2241,
      "business": 2242,
      "moored": 2243,
      "CAPS15": 2244,
      "airs": 2245,
      "allowing": 2246,
      "dog": 2247,
      "happens": 2248,
      "vision": 2249,
      "becoming": 2250,
      "vowed": 2251,
      "Posted": 2252,
      "Di": 2253,
      "ush": 2254,
      "outh": 2255,
      "adm": 2256,
      "peoples": 2257,
      "brings": 2258,
      "helping": 2259,
      "months": 2260,
      "mess": 2261,
      "however": 2262,
      "decide": 2263,
      "late": 2264,
      "pli": 2265,
      "sight": 2266,
      "onto": 2267,
      "charac": 2268,
      "birthday": 2269,
      "Patience": 2270,
      "ried": 2271,
      "bored": 2272,
      "trans": 2273,
      "benefits": 2274,
      "jump": 2275,
      "mite": 2276,
      "iting": 2277,
      "disagree": 2278,
      "caring": 2279,
      "mer": 2280,
      "issu": 2281,
      "dev": 2282,
      "strugg": 2283,
      "risk": 2284,
      "19": 2285,
      "Winter": 2286,
      "cting": 2287,
      "pers": 2288,
      "pump": 2289,
      "caught": 2290,
      "ield": 2291,
      "countries": 2292,
      "DATE2": 2293,
      "character": 2294,
      "mar": 2295,
      "ulti": 2296,
      "rigibles": 2297,
      "maskie": 2298,
      "below": 2299,
      "urmaskie": 2300,
      "views": 2301,
      "Cuba": 2302,
      "Mar": 2303,
      "Yes": 2304,
      "zy": 2305,
      "ists": 2306,
      "finding": 2307,
      "joke": 2308,
      "surround": 2309,
      "strength": 2310,
      "issues": 2311,
      "ids": 2312,
      "gover": 2313,
      "grab": 2314,
      "morning": 2315,
      "immigrants": 2316,
      "City": 2317,
      "fig": 2318,
      "kill": 2319,
      "faraway": 2320,
      "distance": 2321,
      "Lü": 2322,
      "Next": 2323,
      "cable": 2324,
      "program": 2325,
      "Child": 2326,
      "tw": 2327,
      "”.": 2328,
      "influ": 2329,
      "feelings": 2330,
      "quiet": 2331,
      "belief": 2332,
      "early": 2333,
      "Lüsted": 2334,
      "race": 2335,
      "share": 2336,
      "teenagers": 2337,
      "thier": 2338,
      "sees": 2339,
      "thered": 2340,
      "Instead": 2341,
      "thoughts": 2342,
      "arr": 2343,
      "expe": 2344,
      "guess": 2345,
      "relig": 2346,
      "pot": 2347,
      "vac": 2348,
      "requ": 2349,
      "snows": 2350,
      "typing": 2351,
      "inclu": 2352,
      "snake": 2353,
      "dry": 2354,
      "roof": 2355,
      "silently": 2356,
      "exactly": 2357,
      "ghts": 2358,
      "modific": 2359,
      "pas": 2360,
      "mach": 2361,
      "grew": 2362,
      "spir": 2363,
      "arms": 2364,
      "songs": 2365,
      "appreci": 2366,
      "sport": 2367,
      "continu": 2368,
      "cu": 2369,
      "videos": 2370,
      "taught": 2371,
      "sey": 2372,
      "osemite": 2373,
      "reality": 2374,
      "changing": 2375,
      "doctor": 2376,
      "scream": 2377,
      "du": 2378,
      "engers": 2379,
      "Children": 2380,
      "stores": 2381,
      "moods": 2382,
      "pres": 2383,
      "ler": 2384,
      "impossible": 2385,
      "cks": 2386,
      "personally": 2387,
      "cia": 2388,
      "determined": 2389,
      "respon": 2390,
      "bing": 2391,
      "ian": 2392,
      "contact": 2393,
      "familiar": 2394,
      "respect": 2395,
      "ream": 2396,
      "ices": 2397,
      "ches": 2398,
      "ersey": 2399,
      "appe": 2400,
      "teachers": 2401,
      "Road": 2402,
      "sixty": 2403,
      "ges": 2404,
      "ances": 2405,
      "craz": 2406,
      "doors": 2407,
      "Yosemite": 2408,
      "grat": 2409,
      "velop": 2410,
      "connect": 2411,
      "addicted": 2412,
      "biggest": 2413,
      "Marcia": 2414,
      "haven": 2415,
      "ilar": 2416,
      "didnt": 2417,
      "sym": 2418,
      "wom": 2419,
      "eventually": 2420,
      "Amid": 2421,
      "cing": 2422,
      "ised": 2423,
      "tether": 2424,
      "brain": 2425,
      "determination": 2426,
      "sor": 2427,
      "level": 2428,
      "putting": 2429,
      "prom": 2430,
      "daily": 2431,
      "modifications": 2432,
      "symbo": 2433,
      "Amidon": 2434,
      "trad": 2435,
      "laws": 2436,
      "flowers": 2437,
      "Secondly": 2438,
      "field": 2439,
      "lif": 2440,
      "somewhere": 2441,
      "weren": 2442,
      "boring": 2443,
      "ism": 2444,
      "stro": 2445,
      "tele": 2446,
      "whats": 2447,
      "interacting": 2448,
      "passengers": 2449,
      "Kurmaskie": 2450,
      "waste": 2451,
      "cell": 2452,
      "workers": 2453,
      "special": 2454,
      "Home": 2455,
      "Jersey": 2456,
      "sw": 2457,
      "aband": 2458,
      "myspace": 2459,
      "projects": 2460,
      "party": 2461,
      "himself": 2462,
      "hung": 2463,
      "!!": 2464,
      "Sh": 2465,
      "emp": 2466,
      "floor": 2467,
      "indi": 2468,
      "provide": 2469,
      "please": 2470,
      "wonderful": 2471,
      "literature": 2472,
      "aring": 2473,
      "facts": 2474,
      "looks": 2475,
      "prints": 2476,
      "lay": 2477,
      "lunch": 2478,
      "rees": 2479,
      "stairs": 2480,
      "eating": 2481,
      "mel": 2482,
      "PERCENT2": 2483,
      "educational": 2484,
      "continue": 2485,
      "increas": 2486,
      "Dirigibles": 2487,
      "crazy": 2488,
      "lap": 2489,
      "sli": 2490,
      "tra": 2491,
      "atherine": 2492,
      "Paren": 2493,
      "nment": 2494,
      "rence": 2495,
      "wrote": 2496,
      "deserts": 2497,
      "successful": 2498,
      "suitable": 2499,
      "bal": 2500,
      "ient": 2501,
      "lest": 2502,
      "shown": 2503,
      "mouth": 2504,
      "pul": 2505,
      "aterson": 2506,
      "convers": 2507,
      "urther": 2508,
      "weeks": 2509,
      "concern": 2510,
      "Katherine": 2511,
      "anim": 2512,
      "repe": 2513,
      "within": 2514,
      "bul": 2515,
      "Through": 2516,
      "addition": 2517,
      "season": 2518,
      "som": 2519,
      "liz": 2520,
      "sity": 2521,
      "sud": 2522,
      "Kids": 2523,
      "bought": 2524,
      "ters": 2525,
      "itted": 2526,
      "report": 2527,
      "oned": 2528,
      "beat": 2529,
      "somebody": 2530,
      "office": 2531,
      "NUM5": 2532,
      "downtown": 2533,
      "vidual": 2534,
      "Music": 2535,
      "Paterson": 2536,
      "ging": 2537,
      "ster": 2538,
      "moder": 2539,
      "spot": 2540,
      "keeps": 2541,
      "common": 2542,
      "concluded": 2543,
      "serv": 2544,
      "structure": 2545,
      "invol": 2546,
      "tradition": 2547,
      "Ahead": 2548,
      "gar": 2549,
      "bath": 2550,
      "liked": 2551,
      "hair": 2552,
      "necess": 2553,
      "ics": 2554,
      "tern": 2555,
      "endless": 2556,
      "Here": 2557,
      "happening": 2558,
      "source": 2559,
      "Parents": 2560,
      "pull": 2561,
      "seat": 2562,
      "deep": 2563,
      "honest": 2564,
      "Maybe": 2565,
      "ized": 2566,
      "surv": 2567,
      "visit": 2568,
      "Which": 2569,
      "definition": 2570,
      "voice": 2571,
      "watched": 2572,
      "bott": 2573,
      "college": 2574,
      "gratitude": 2575,
      "pulled": 2576,
      "!”": 2577,
      "gon": 2578,
      "io": 2579,
      "luck": 2580,
      "tall": 2581,
      "apers": 2582,
      "TION": 2583,
      "custo": 2584,
      "benif": 2585,
      "elect": 2586,
      "figure": 2587,
      "har": 2588,
      "sort": 2589,
      "shot": 2590,
      "letting": 2591,
      "black": 2592,
      "crying": 2593,
      "destroyed": 2594,
      "Other": 2595,
      "cit": 2596,
      "vey": 2597,
      "shared": 2598,
      "impact": 2599,
      "statement": 2600,
      "relationships": 2601,
      "topics": 2602,
      "fill": 2603,
      "throw": 2604,
      "rew": 2605,
      "Any": 2606,
      "thirsty": 2607,
      "censoring": 2608,
      "non": 2609,
      "handle": 2610,
      "guys": 2611,
      "individual": 2612,
      "iate": 2613,
      "ination": 2614,
      "thes": 2615,
      "humor": 2616,
      "nearly": 2617,
      "none": 2618,
      "wish": 2619,
      "tone": 2620,
      "wide": 2621,
      "develop": 2622,
      "presents": 2623,
      "sudden": 2624,
      "gan": 2625,
      "ley": 2626,
      "ric": 2627,
      "plants": 2628,
      "atives": 2629,
      "relative": 2630,
      "understanding": 2631,
      "born": 2632,
      "arrived": 2633,
      "prof": 2634,
      "belive": 2635,
      "require": 2636,
      "ahead": 2637,
      "cross": 2638,
      "mine": 2639,
      "argu": 2640,
      "anywhere": 2641,
      "active": 2642,
      "camp": 2643,
      "survive": 2644,
      "novel": 2645,
      "tool": 2646,
      "scared": 2647,
      "minds": 2648,
      "roads": 2649,
      "framework": 2650,
      "decision": 2651,
      "milli": 2652,
      "inno": 2653,
      "ueprints": 2654,
      "worked": 2655,
      "syste": 2656,
      "grades": 2657,
      "stroke": 2658,
      "Her": 2659,
      "tail": 2660,
      "ilt": 2661,
      "assign": 2662,
      "finished": 2663,
      "owners": 2664,
      "izing": 2665,
      "added": 2666,
      "restri": 2667,
      "glass": 2668,
      "exposed": 2669,
      "loc": 2670,
      "finish": 2671,
      "dangling": 2672,
      "strongly": 2673,
      "occur": 2674,
      "approach": 2675,
      "events": 2676,
      "'.": 2677,
      "instant": 2678,
      "tions": 2679,
      "stayed": 2680,
      "challeng": 2681,
      "gard": 2682,
      "ying": 2683,
      "partic": 2684,
      "homeland": 2685,
      "obstic": 2686,
      "lazy": 2687,
      "bloom": 2688,
      "abandoned": 2689,
      "pack": 2690,
      "sn": 2691,
      "uice": 2692,
      "everywhere": 2693,
      "based": 2694,
      "plied": 2695,
      "beliefs": 2696,
      "aim": 2697,
      "dream": 2698,
      "erman": 2699,
      "staying": 2700,
      "advice": 2701,
      "Having": 2702,
      "dam": 2703,
      "dic": 2704,
      "fing": 2705,
      "treat": 2706,
      "tered": 2707,
      "sage": 2708,
      "angry": 2709,
      "picked": 2710,
      "writes": 2711,
      "sections": 2712,
      "modified": 2713,
      "ost": 2714,
      "rad": 2715,
      "ionate": 2716,
      "possibly": 2717,
      "sexual": 2718,
      "ect": 2719,
      "sist": 2720,
      "sick": 2721,
      "depress": 2722,
      "nobody": 2723,
      "towns": 2724,
      "supposed": 2725,
      "hanging": 2726,
      "bathroom": 2727,
      "ds": 2728,
      "dou": 2729,
      "ational": 2730,
      "aged": 2731,
      "greg": 2732,
      "horrible": 2733,
      "activities": 2734,
      "cuban": 2735,
      "citiz": 2736,
      "cking": 2737,
      "vies": 2738,
      "istic": 2739,
      "stup": 2740,
      "post": 2741,
      "specific": 2742,
      "named": 2743,
      "construction": 2744,
      "gonna": 2745,
      "Bl": 2746,
      "unsafe": 2747,
      "shelfs": 2748,
      "clearly": 2749,
      "confidence": 2750,
      "obvious": 2751,
      "stuck": 2752,
      "busy": 2753,
      "Viet": 2754,
      "base": 2755,
      "hom": 2756,
      "peace": 2757,
      "neither": 2758,
      "icial": 2759,
      "prote": 2760,
      "item": 2761,
      "patients": 2762,
      "grandma": 2763,
      "adapt": 2764,
      "apropriate": 2765,
      "transm": 2766,
      "doub": 2767,
      "Vietnam": 2768,
      "Ho": 2769,
      "oe": 2770,
      "uel": 2771,
      "win": 2772,
      "chose": 2773,
      "ghost": 2774,
      "built": 2775,
      "woke": 2776,
      "supply": 2777,
      "normal": 2778,
      "blow": 2779,
      "worried": 2780,
      "Movies": 2781,
      "instance": 2782,
      "government": 2783,
      "religion": 2784,
      "Would": 2785,
      "spire": 2786,
      "trust": 2787,
      "focus": 2788,
      "click": 2789,
      "vacation": 2790,
      "passage": 2791,
      "gregation": 2792,
      "Of": 2793,
      "ushed": 2794,
      "stra": 2795,
      "scen": 2796,
      "standing": 2797,
      "ential": 2798,
      "stupid": 2799,
      "height": 2800,
      "asking": 2801,
      "result": 2802,
      "bat": 2803,
      "mers": 2804,
      "ze": 2805,
      "removing": 2806,
      "ctive": 2807,
      "hate": 2808,
      "lad": 2809,
      "task": 2810,
      "ering": 2811,
      "causing": 2812,
      "teaches": 2813,
      "popular": 2814,
      "Should": 2815,
      "Blueprints": 2816,
      "German": 2817,
      "inn": 2818,
      "desp": 2819,
      "clothes": 2820,
      "relatives": 2821,
      "modern": 2822,
      "equ": 2823,
      "fat": 2824,
      "iv": 2825,
      "mee": 2826,
      "Their": 2827,
      "causes": 2828,
      "improve": 2829,
      "tethered": 2830,
      "worst": 2831,
      "ulous": 2832,
      "tran": 2833,
      "plane": 2834,
      "traveling": 2835,
      "truly": 2836,
      "strengthened": 2837,
      "Your": 2838,
      "que": 2839,
      "ened": 2840,
      "force": 2841,
      "parts": 2842,
      "thanks": 2843,
      "peri": 2844,
      "keeping": 2845,
      "cat": 2846,
      "dark": 2847,
      "factory": 2848,
      "attempt": 2849,
      "situations": 2850,
      "emotion": 2851,
      "path": 2852,
      "push": 2853,
      "opport": 2854,
      "irt": 2855,
      "CAPS16": 2856,
      "iest": 2857,
      "cars": 2858,
      "thousands": 2859,
      "conditions": 2860,
      "loud": 2861,
      "sets": 2862,
      "provid": 2863,
      "box": 2864,
      "opened": 2865,
      "slowly": 2866,
      "IN": 2867,
      "lat": 2868,
      "tough": 2869,
      "died": 2870,
      "THE": 2871,
      "Laughing": 2872,
      "cousins": 2873,
      "cop": 2874,
      "appoint": 2875,
      "diff": 2876,
      "resour": 2877,
      "grandmother": 2878,
      "sweat": 2879,
      "valu": 2880,
      "laptop": 2881,
      "garden": 2882,
      "ders": 2883,
      "rich": 2884,
      "Local": 2885,
      "narr": 2886,
      "sof": 2887,
      "reached": 2888,
      "stri": 2889,
      "truth": 2890,
      "transmitted": 2891,
      "band": 2892,
      "oid": 2893,
      "white": 2894,
      "anybody": 2895,
      "therefore": 2896,
      "described": 2897,
      "experiences": 2898,
      "actions": 2899,
      "television": 2900,
      "period": 2901,
      "\"...": 2902,
      "More": 2903,
      "rate": 2904,
      "son": 2905,
      "uni": 2906,
      "imagine": 2907,
      "conversation": 2908,
      "harsh": 2909,
      "cap": 2910,
      "yle": 2911,
      "replied": 2912,
      "oul": 2913,
      "shel": 2914,
      "exers": 2915,
      "igno": 2916,
      "...\"": 2917,
      "craf": 2918,
      "questions": 2919,
      "practice": 2920,
      "ural": 2921,
      "related": 2922,
      "Lives": 2923,
      "cording": 2924,
      "seconds": 2925,
      "responsi": 2926,
      "Pl": 2927,
      "ape": 2928,
      "ming": 2929,
      "ors": 2930,
      "organ": 2931,
      "eds": 2932,
      "Is": 2933,
      "bout": 2934,
      "thr": 2935,
      "aunt": 2936,
      "log": 2937,
      "conclude": 2938,
      "bright": 2939,
      "ience": 2940,
      "jud": 2941,
      "threw": 2942,
      "inf": 2943,
      "ital": 2944,
      "arely": 2945,
      "audi": 2946,
      "ourselves": 2947,
      "interested": 2948,
      "excers": 2949,
      "company": 2950,
      "harmful": 2951,
      "doubt": 2952,
      "straight": 2953,
      "nat": 2954,
      "drivers": 2955,
      "rush": 2956,
      "ba": 2957,
      "cir": 2958,
      "clim": 2959,
      "soli": 2960,
      "produ": 2961,
      "engine": 2962,
      "avoid": 2963,
      "groups": 2964,
      "element": 2965,
      "193": 2966,
      "gor": 2967,
      "stick": 2968,
      "comed": 2969,
      "stood": 2970,
      "Thank": 2971,
      "corre": 2972,
      "embar": 2973,
      "basically": 2974,
      "?”": 2975,
      "amer": 2976,
      "unless": 2977,
      "plans": 2978,
      "offer": 2979,
      "process": 2980,
      "posted": 2981,
      "overall": 2982,
      "examples": 2983,
      "beneficial": 2984,
      "avail": 2985,
      "racism": 2986,
      "During": 2987,
      "sen": 2988,
      "formed": 2989,
      "failing": 2990,
      "........": 2991,
      "celebrations": 2992,
      "system": 2993,
      "lines": 2994,
      "wise": 2995,
      "offends": 2996,
      "gigg": 2997,
      "cheer": 2998,
      "window": 2999,
      "burst": 3000,
      "dehydration": 3001,
      "replaced": 3002,
      "lea": 3003,
      "goal": 3004,
      "obese": 3005,
      "iling": 3006,
      "umble": 3007,
      "swim": 3008,
      "advances": 3009,
      "transport": 3010,
      "americ": 3011,
      "fau": 3012,
      "ger": 3013,
      "pan": 3014,
      "”,": 3015,
      "comfor": 3016,
      "iculous": 3017,
      "except": 3018,
      "broke": 3019,
      "wouldnt": 3020,
      "reminds": 3021,
      "meeting": 3022,
      "gle": 3023,
      "rust": 3024,
      "ising": 3025,
      "obes": 3026,
      "laughs": 3027,
      "mix": 3028,
      "Joe": 3029,
      "ah": 3030,
      "hide": 3031,
      "vous": 3032,
      "becomes": 3033,
      "advent": 3034,
      "ays": 3035,
      "rights": 3036,
      "tears": 3037,
      "site": 3038,
      "draw": 3039,
      "missed": 3040,
      "programs": 3041,
      "fli": 3042,
      "pun": 3043,
      "enced": 3044,
      "ides": 3045,
      "exceed": 3046,
      "ORGANIZATION3": 3047,
      "multi": 3048,
      "strange": 3049,
      "enjoyed": 3050,
      "checked": 3051,
      "grandparents": 3052,
      "avy": 3053,
      "apartment": 3054,
      "animals": 3055,
      "fif": 3056,
      "juice": 3057,
      "os": 3058,
      "wan": 3059,
      "shouldnt": 3060,
      "advanta": 3061,
      "selflessly": 3062,
      "particular": 3063,
      "solid": 3064,
      "rating": 3065,
      "moor": 3066,
      "roll": 3067,
      "LOCATION": 3068,
      "minute": 3069,
      "memory": 3070,
      "correct": 3071,
      "Let": 3072,
      "page": 3073,
      "tu": 3074,
      "tly": 3075,
      "vol": 3076,
      "seven": 3077,
      "fear": 3078,
      "notice": 3079,
      "offense": 3080,
      "anger": 3081,
      "wenty": 3082,
      "surpr": 3083,
      "classes": 3084,
      "experts": 3085,
      "hearing": 3086,
      "including": 3087,
      "citizens": 3088,
      "Fam": 3089,
      "duc": 3090,
      "ered": 3091,
      "sl": 3092,
      "astic": 3093,
      "ution": 3094,
      "death": 3095,
      "detail": 3096,
      "wanting": 3097,
      "nervous": 3098,
      "complaining": 3099,
      "fighting": 3100,
      "confident": 3101,
      "physical": 3102,
      "Me": 3103,
      "OU": 3104,
      "aid": 3105,
      "mot": 3106,
      "yel": 3107,
      "argue": 3108,
      "absolut": 3109,
      "losing": 3110,
      "aver": 3111,
      "papers": 3112,
      "vered": 3113,
      "math": 3114,
      "earth": 3115,
      "doesnt": 3116,
      "phones": 3117,
      "Don": 3118,
      "bunch": 3119,
      "hid": 3120,
      "ron": 3121,
      "giz": 3122,
      "rooms": 3123,
      "publ": 3124,
      "chatting": 3125,
      "melts": 3126,
      "Whe": 3127,
      "bag": 3128,
      "daugh": 3129,
      "itive": 3130,
      "map": 3131,
      "extra": 3132,
      "sounds": 3133,
      "traditional": 3134,
      "necessary": 3135,
      "radio": 3136,
      "leaves": 3137,
      "daughter": 3138,
      "trees": 3139,
      "willing": 3140,
      "webcam": 3141,
      "ports": 3142,
      "solve": 3143,
      "regular": 3144,
      "available": 3145,
      "Based": 3146,
      "bond": 3147,
      "wall": 3148,
      "station": 3149,
      "acking": 3150,
      "forgot": 3151,
      "tied": 3152,
      "pleas": 3153,
      "Computer": 3154,
      "docked": 3155,
      "current": 3156,
      "serve": 3157,
      "stronger": 3158,
      "Overall": 3159,
      "Bef": 3160,
      "cure": 3161,
      "twenty": 3162,
      "inary": 3163,
      "aspe": 3164,
      "theres": 3165,
      "loss": 3166,
      "dered": 3167,
      "prep": 3168,
      "accommo": 3169,
      "obesity": 3170,
      "Before": 3171,
      "bility": 3172,
      "hau": 3173,
      "mass": 3174,
      "vul": 3175,
      "aly": 3176,
      "although": 3177,
      "oogle": 3178,
      "rides": 3179,
      "shut": 3180,
      "unhealthy": 3181,
      "factor": 3182,
      "track": 3183,
      "toward": 3184,
      "sky": 3185,
      "embarr": 3186,
      "inven": 3187,
      "kets": 3188,
      "role": 3189,
      "uncle": 3190,
      "tallest": 3191,
      "persons": 3192,
      "itely": 3193,
      "sugg": 3194,
      "lesson": 3195,
      "cases": 3196,
      "influence": 3197,
      "millions": 3198,
      "Ma": 3199,
      "cence": 3200,
      "sla": 3201,
      "unic": 3202,
      "reads": 3203,
      "basket": 3204,
      "fishing": 3205,
      "involved": 3206,
      "yelled": 3207,
      "tend": 3208,
      "wit": 3209,
      "chair": 3210,
      "lying": 3211,
      "boys": 3212,
      "bird": 3213,
      "dress": 3214,
      "itor": 3215,
      "kward": 3216,
      "recent": 3217,
      "app": 3218,
      "pping": 3219,
      "faces": 3220,
      "Who": 3221,
      "driver": 3222,
      "awkward": 3223,
      "truck": 3224,
      "glad": 3225,
      "expand": 3226,
      "Ad": 3227,
      "dance": 3228,
      "ely": 3229,
      "orig": 3230,
      "moments": 3231,
      "teaching": 3232,
      "proper": 3233,
      "fiction": 3234,
      "fortun": 3235,
      "ruin": 3236,
      "Read": 3237,
      "benifit": 3238,
      "lady": 3239,
      "diffrent": 3240,
      "accommodate": 3241,
      "origin": 3242,
      "adjust": 3243,
      "grac": 3244,
      "childrens": 3245,
      "smart": 3246,
      "calling": 3247,
      "connection": 3248,
      "ridiculous": 3249,
      "culinary": 3250,
      "variety": 3251,
      "recently": 3252,
      "cial": 3253,
      "advance": 3254,
      "green": 3255,
      "uded": 3256,
      "streets": 3257,
      "average": 3258,
      "-@": 3259,
      "tv": 3260,
      "asleep": 3261,
      "opp": 3262,
      "tery": 3263,
      "hadn": 3264,
      "settings": 3265,
      "drove": 3266,
      "licit": 3267,
      "super": 3268,
      "generation": 3269,
      "football": 3270,
      "mentioned": 3271,
      "accompl": 3272,
      "Whether": 3273,
      "arity": 3274,
      "forward": 3275,
      "cep": 3276,
      "bump": 3277,
      "grown": 3278,
      "friendly": 3279,
      "carry": 3280,
      "blue": 3281,
      "similar": 3282,
      "humans": 3283,
      "concerned": 3284,
      "continued": 3285,
      "transportation": 3286,
      "Le": 3287,
      "Such": 3288,
      "tree": 3289,
      "ane": 3290,
      "sele": 3291,
      "librarian": 3292,
      "missing": 3293,
      "doctors": 3294,
      "subjects": 3295,
      "shoes": 3296,
      "embarrass": 3297,
      "gn": 3298,
      "ged": 3299,
      "lib": 3300,
      "congregation": 3301,
      "Think": 3302,
      "patiently": 3303,
      "science": 3304,
      "heatstroke": 3305,
      "shape": 3306,
      "',": 3307,
      "osity": 3308,
      "rand": 3309,
      "tumble": 3310,
      "weeds": 3311,
      "inds": 3312,
      "points": 3313,
      "effe": 3314,
      "creating": 3315,
      "clock": 3316,
      "boyfriend": 3317,
      "Au": 3318,
      "card": 3319,
      "kn": 3320,
      "ties": 3321,
      "terrible": 3322,
      "poor": 3323,
      "warmth": 3324,
      "drinking": 3325,
      "bigger": 3326,
      "sisters": 3327,
      "About": 3328,
      "bother": 3329,
      "etern": 3330,
      "thir": 3331,
      "mental": 3332,
      "vior": 3333,
      "????": 3334,
      "explained": 3335,
      "direction": 3336,
      "Throughout": 3337,
      "innocence": 3338,
      "narrator": 3339,
      "fault": 3340,
      "Go": 3341,
      "youth": 3342,
      "famous": 3343,
      "Though": 3344,
      "scary": 3345,
      "flamable": 3346,
      "physically": 3347,
      "symboliz": 3348,
      "opportunity": 3349,
      "solidarity": 3350,
      "Hy": 3351,
      "Nature": 3352,
      "kno": 3353,
      "anno": 3354,
      "aling": 3355,
      "buis": 3356,
      "stomach": 3357,
      "graphic": 3358,
      "Today": 3359,
      "brothers": 3360,
      "explicit": 3361,
      "admir": 3362,
      "women": 3363,
      "hungry": 3364,
      "Plus": 3365,
      "Are": 3366,
      "google": 3367,
      "arily": 3368,
      "acid": 3369,
      "anyway": 3370,
      "ips": 3371,
      "boat": 3372,
      "foreign": 3373,
      "careers": 3374,
      "skill": 3375,
      "limited": 3376,
      "activity": 3377,
      "jumped": 3378,
      "empty": 3379,
      "ignore": 3380,
      "Hydrogen": 3381,
      "killed": 3382,
      "ls": 3383,
      "tes": 3384,
      "arom": 3385,
      "forced": 3386,
      "frust": 3387,
      "whenever": 3388,
      "train": 3389,
      "eachother": 3390,
      "gratefulness": 3391,
      "ballo": 3392,
      "neighbors": 3393,
      "articles": 3394,
      "definitely": 3395,
      "expect": 3396,
      "sorry": 3397,
      "battery": 3398,
      "Author": 3399,
      "ST": 3400,
      "moun": 3401,
      "CAPS17": 3402,
      "CAPS18": 3403,
      "qual": 3404,
      "higher": 3405,
      "passing": 3406,
      "dropped": 3407,
      "reminded": 3408,
      "balance": 3409,
      "Did": 3410,
      "Minf": 3411,
      "nation": 3412,
      "oh": 3413,
      "rely": 3414,
      "bele": 3415,
      "enty": 3416,
      "covered": 3417,
      "attitude": 3418,
      "Minfong": 3419,
      "nic": 3420,
      "yelling": 3421,
      "gazines": 3422,
      "checking": 3423,
      "disappoint": 3424,
      "aware": 3425,
      "refle": 3426,
      "solution": 3427,
      "homes": 3428,
      "soft": 3429,
      "basketball": 3430,
      "barely": 3431,
      "encoun": 3432,
      "Stud": 3433,
      "plays": 3434,
      "headed": 3435,
      "confli": 3436,
      "instilled": 3437,
      "majority": 3438,
      "tons": 3439,
      "shopping": 3440,
      "fields": 3441,
      "bri": 3442,
      "eight": 3443,
      "sme": 3444,
      "impress": 3445,
      "backdrop": 3446,
      "struc": 3447,
      "turns": 3448,
      "crack": 3449,
      "general": 3450,
      "Pass": 3451,
      "cles": 3452,
      "thri": 3453,
      "aloud": 3454,
      "rode": 3455,
      "def": 3456,
      "difference": 3457,
      "listened": 3458,
      "gym": 3459,
      "craft": 3460,
      "natural": 3461,
      "libary": 3462,
      "pat": 3463,
      "ys": 3464,
      "unk": 3465,
      "proved": 3466,
      "affe": 3467,
      "intro": 3468,
      "destination": 3469,
      "surroundings": 3470,
      "challenges": 3471,
      "damage": 3472,
      "Further": 3473,
      "bill": 3474,
      "wood": 3475,
      "threat": 3476,
      "erous": 3477,
      "aur": 3478,
      "auther": 3479,
      "puts": 3480,
      "plenty": 3481,
      "NUM6": 3482,
      "Almost": 3483,
      "medi": 3484,
      "broken": 3485,
      "mistakes": 3486,
      "begins": 3487,
      "grandpa": 3488,
      "bottles": 3489,
      "Magazines": 3490,
      "admiration": 3491,
      "lab": 3492,
      "ror": 3493,
      "sand": 3494,
      "rece": 3495,
      "retake": 3496,
      "enge": 3497,
      "wear": 3498,
      "account": 3499,
      "believes": 3500,
      "Everything": 3501,
      "calls": 3502,
      "buying": 3503,
      "breath": 3504,
      "sacrific": 3505,
      "teenager": 3506,
      "buisness": 3507,
      "mir": 3508,
      "rem": 3509,
      "remain": 3510,
      "sell": 3511,
      "lier": 3512,
      "actic": 3513,
      "rock": 3514,
      "dead": 3515,
      "proves": 3516,
      "ieve": 3517,
      "hotel": 3518,
      "relie": 3519,
      "contained": 3520,
      "summer": 3521,
      "killing": 3522,
      "Family": 3523,
      "discus": 3524,
      "further": 3525,
      "gree": 3526,
      "hall": 3527,
      "atly": 3528,
      "haz": 3529,
      "impatient": 3530,
      "mainly": 3531,
      "color": 3532,
      "depends": 3533,
      "despite": 3534,
      "''": 3535,
      "RE": 3536,
      "bills": 3537,
      "ker": 3538,
      "pages": 3539,
      "info": 3540,
      "itter": 3541,
      "ribut": 3542,
      "united": 3543,
      "shed": 3544,
      "claim": 3545,
      "funn": 3546,
      "turning": 3547,
      "relate": 3548,
      "extended": 3549,
      "crow": 3550,
      "civi": 3551,
      "smiled": 3552,
      "included": 3553,
      "woman": 3554,
      "swing": 3555,
      "judge": 3556,
      "multiple": 3557,
      "absolutely": 3558,
      "Taking": 3559,
      "couch": 3560,
      "dies": 3561,
      "eth": 3562,
      "rude": 3563,
      "tit": 3564,
      "enc": 3565,
      "arter": 3566,
      "note": 3567,
      "conv": 3568,
      "writer": 3569,
      "cordination": 3570,
      "hurting": 3571,
      "satis": 3572,
      "challenge": 3573,
      "prevented": 3574,
      "emotions": 3575,
      "screaming": 3576,
      "baseball": 3577,
      "eternally": 3578,
      "Cer": 3579,
      "ior": 3580,
      "tot": 3581,
      "aste": 3582,
      "poses": 3583,
      "print": 3584,
      "perate": 3585,
      "discover": 3586,
      "lastly": 3587,
      "suppose": 3588,
      "mistake": 3589,
      "limits": 3590,
      "legs": 3591,
      "explaining": 3592,
      "population": 3593,
      "connected": 3594,
      "messaging": 3595,
      "following": 3596,
      "followed": 3597,
      "spirit": 3598,
      "birds": 3599,
      "gracious": 3600,
      "Sure": 3601,
      "gun": 3602,
      "lled": 3603,
      "toler": 3604,
      "ares": 3605,
      "dram": 3606,
      "searching": 3607,
      "rowing": 3608,
      "advanced": 3609,
      "explore": 3610,
      "includes": 3611,
      "tube": 3612,
      "vulgar": 3613,
      "Later": 3614,
      "mouse": 3615,
      "pool": 3616,
      "represents": 3617,
      "encom": 3618,
      "pet": 3619,
      "shirt": 3620,
      "construc": 3621,
      "spo": 3622,
      "CAPS21": 3623,
      "aff": 3624,
      "twitter": 3625,
      "rusty": 3626,
      "wanna": 3627,
      "bil": 3628,
      "sle": 3629,
      "represent": 3630,
      "ope": 3631,
      "exist": 3632,
      "enjoyable": 3633,
      "describe": 3634,
      "courageous": 3635,
      "hundreds": 3636,
      "random": 3637,
      "dan": 3638,
      "glo": 3639,
      "nine": 3640,
      "vert": 3641,
      "someones": 3642,
      "practic": 3643,
      "increase": 3644,
      "somthing": 3645,
      "protect": 3646,
      "bait": 3647,
      "fil": 3648,
      "lli": 3649,
      "lease": 3650,
      "beach": 3651,
      "lie": 3652,
      "weird": 3653,
      "river": 3654,
      "sold": 3655,
      "aming": 3656,
      "saved": 3657,
      "crash": 3658,
      "expression": 3659,
      "struggle": 3660,
      "LOCATION4": 3661,
      "smell": 3662,
      "Furthermore": 3663,
      "Say": 3664,
      "loose": 3665,
      "thanked": 3666,
      "acted": 3667,
      "importantly": 3668,
      "realizes": 3669,
      "choices": 3670,
      "holding": 3671,
      "messages": 3672,
      "expensive": 3673,
      "pieces": 3674,
      "acceptable": 3675,
      "Ac": 3676,
      "boo": 3677,
      "gent": 3678,
      "hilar": 3679,
      "ima": 3680,
      "offe": 3681,
      "becu": 3682,
      "stat": 3683,
      "saf": 3684,
      "deb": 3685,
      "wake": 3686,
      "umb": 3687,
      "See": 3688,
      "block": 3689,
      "generosity": 3690,
      "liter": 3691,
      "include": 3692,
      "hosp": 3693,
      "decisions": 3694,
      "lucky": 3695,
      "audience": 3696,
      "Certain": 3697,
      "--": 3698,
      "mall": 3699,
      "ram": 3700,
      "tar": 3701,
      "iny": 3702,
      "acts": 3703,
      "tower": 3704,
      "medic": 3705,
      "argument": 3706,
      "obsticles": 3707,
      "Growing": 3708,
      "Using": 3709,
      "rout": 3710,
      "stit": 3711,
      "libr": 3712,
      "shar": 3713,
      "coach": 3714,
      "blame": 3715,
      "temperature": 3716,
      "appropiate": 3717,
      "smiling": 3718,
      "distrac": 3719,
      "hole": 3720,
      "electron": 3721,
      "packed": 3722,
      "totally": 3723,
      "hous": 3724,
      "zed": 3725,
      "reed": 3726,
      "usual": 3727,
      "ung": 3728,
      "rences": 3729,
      "differ": 3730,
      "desk": 3731,
      "deserted": 3732,
      "hurst": 3733,
      "eleven": 3734,
      "succeed": 3735,
      "crossed": 3736,
      "aromas": 3737,
      "Imag": 3738,
      "dess": 3739,
      "heavy": 3740,
      "alright": 3741,
      "offending": 3742,
      "Third": 3743,
      "fulfill": 3744,
      "coll": 3745,
      "hardships": 3746,
      "networking": 3747,
      "shortest": 3748,
      "purch": 3749,
      "generations": 3750,
      "numerous": 3751,
      "Passionate": 3752,
      "dut": 3753,
      "ians": 3754,
      "pound": 3755,
      "unders": 3756,
      "fraid": 3757,
      "demon": 3758,
      "effected": 3759,
      "todays": 3760,
      "survi": 3761,
      "planned": 3762,
      "staring": 3763,
      "portr": 3764,
      "weighted": 3765,
      "snakes": 3766,
      "curi": 3767,
      "rics": 3768,
      "encompassed": 3769,
      "becuase": 3770,
      "yard": 3771,
      "€™": 3772,
      "theme": 3773,
      "anity": 3774,
      "beac": 3775,
      "beha": 3776,
      "beating": 3777,
      "lessons": 3778,
      "ease": 3779,
      "matters": 3780,
      "corner": 3781,
      "silly": 3782,
      "hitting": 3783,
      "obviously": 3784,
      "valuable": 3785,
      "hilarious": 3786,
      "Bo": 3787,
      "Due": 3788,
      "Te": 3789,
      "tast": 3790,
      "tom": 3791,
      "stating": 3792,
      "weak": 3793,
      "wild": 3794,
      "cons": 3795,
      "button": 3796,
      "gious": 3797,
      "prohi": 3798,
      "effort": 3799,
      "blind": 3800,
      "curse": 3801,
      "skin": 3802,
      "breaking": 3803,
      "sides": 3804,
      "quicker": 3805,
      "falling": 3806,
      "sweet": 3807,
      "depend": 3808,
      "Where": 3809,
      "bound": 3810,
      "fle": 3811,
      "gress": 3812,
      "tour": 3813,
      "thus": 3814,
      "whom": 3815,
      "weigh": 3816,
      "anyways": 3817,
      "Things": 3818,
      "angers": 3819,
      "specially": 3820,
      "disaster": 3821,
      "passionate": 3822,
      "cared": 3823,
      "addicting": 3824,
      "severance": 3825,
      "raised": 3826,
      "honestly": 3827,
      "adventure": 3828,
      "knit": 3829,
      "Imagine": 3830,
      "),": 3831,
      "Ar": 3832,
      "afraid": 3833,
      "pac": 3834,
      "atop": 3835,
      "adore": 3836,
      "aun": 3837,
      "forth": 3838,
      "magiz": 3839,
      "CAPS19": 3840,
      "exhau": 3841,
      "antly": 3842,
      "closed": 3843,
      "attempted": 3844,
      "docu": 3845,
      "compan": 3846,
      "circ": 3847,
      "motiv": 3848,
      "invention": 3849,
      "According": 3850,
      "desser": 3851,
      "Censoring": 3852,
      "Flat": 3853,
      "Lake": 3854,
      "Two": 3855,
      "taste": 3856,
      "era": 3857,
      "omy": 3858,
      "choo": 3859,
      "wich": 3860,
      "observ": 3861,
      "overweight": 3862,
      "artist": 3863,
      "librarys": 3864,
      "discri": 3865,
      "kinda": 3866,
      "survey": 3867,
      "images": 3868,
      "potential": 3869,
      "continues": 3870,
      "depressed": 3871,
      "1937": 3872,
      "Lakehurst": 3873,
      "itage": 3874,
      "alive": 3875,
      "lyrics": 3876,
      "usage": 3877,
      "sometime": 3878,
      "earlier": 3879,
      "Everybody": 3880,
      "leads": 3881,
      "modify": 3882,
      "solved": 3883,
      "cuba": 3884,
      "relaxed": 3885,
      "fixed": 3886,
      "lifest": 3887,
      "comforting": 3888,
      "conflict": 3889,
      "demonstr": 3890,
      "Event": 3891,
      "TO": 3892,
      "dir": 3893,
      "nap": 3894,
      "lock": 3895,
      "nowhere": 3896,
      "suff": 3897,
      "perseverance": 3898,
      "importance": 3899,
      "PERCENT3": 3900,
      "controvers": 3901,
      "normally": 3902,
      "pumps": 3903,
      "scene": 3904,
      "cand": 3905,
      "econ": 3906,
      "ining": 3907,
      "bles": 3908,
      "offened": 3909,
      "background": 3910,
      "Soon": 3911,
      "hardly": 3912,
      "Someone": 3913,
      "picking": 3914,
      "interests": 3915,
      "direct": 3916,
      "PERSON5": 3917,
      "various": 3918,
      "grabbed": 3919,
      "accomplish": 3920,
      "Take": 3921,
      "fant": 3922,
      "separ": 3923,
      "stable": 3924,
      "haps": 3925,
      "heritage": 3926,
      "stor": 3927,
      "ires": 3928,
      "trail": 3929,
      "quit": 3930,
      "cruel": 3931,
      "position": 3932,
      "dangers": 3933,
      "careful": 3934,
      "wondering": 3935,
      "sources": 3936,
      "repeated": 3937,
      "customs": 3938,
      "fingers": 3939,
      "resource": 3940,
      "advantage": 3941,
      "Eventually": 3942,
      "LI": 3943,
      "nes": 3944,
      "names": 3945,
      "twi": 3946,
      "ery": 3947,
      "ories": 3948,
      "comunic": 3949,
      "immedi": 3950,
      "moves": 3951,
      "izz": 3952,
      "contribut": 3953,
      "realization": 3954,
      "planning": 3955,
      "distr": 3956,
      "paid": 3957,
      "designed": 3958,
      "device": 3959,
      "unique": 3960,
      "mixing": 3961,
      "sharp": 3962,
      "gif": 3963,
      "esome": 3964,
      "style": 3965,
      "apo": 3966,
      "ured": 3967,
      "ired": 3968,
      "cycling": 3969,
      "tickets": 3970,
      "distur": 3971,
      "fied": 3972,
      "viously": 3973,
      "explo": 3974,
      "countless": 3975,
      "duced": 3976,
      "details": 3977,
      "suggest": 3978,
      "slavery": 3979,
      ",@": 3980,
      "bow": 3981,
      "pu": 3982,
      "sway": 3983,
      "forgotten": 3984,
      "outdoors": 3985,
      "shout": 3986,
      "upd": 3987,
      "yell": 3988,
      "elsewhere": 3989,
      "misses": 3990,
      "couldnt": 3991,
      "warming": 3992,
      "entially": 3993,
      "compu": 3994,
      "bottle": 3995,
      "required": 3996,
      "novels": 3997,
      "peaceful": 3998,
      "america": 3999,
      "prepared": 4000,
      "Lets": 4001,
      "houses": 4002,
      "HE": 4003,
      "Im": 4004,
      "National": 4005,
      "OF": 4006,
      "mur": 4007,
      "ule": 4008,
      "inapropriate": 4009,
      "ann": 4010,
      "reports": 4011,
      "editor": 4012,
      "apparent": 4013,
      "wered": 4014,
      "diri": 4015,
      "spread": 4016,
      "arent": 4017,
      "happier": 4018,
      "girlfriend": 4019,
      "pho": 4020,
      "writers": 4021,
      "wasnt": 4022,
      "controll": 4023,
      "morrow": 4024,
      "consideration": 4025,
      "service": 4026,
      "suddenly": 4027,
      "location": 4028,
      "innapropriate": 4029,
      "beleive": 4030,
      "Park": 4031,
      "hol": 4032,
      "ile": 4033,
      "size": 4034,
      "van": 4035,
      "anch": 4036,
      "sequ": 4037,
      "comments": 4038,
      "uncensored": 4039,
      "convey": 4040,
      "degre": 4041,
      "poe": 4042,
      "mentally": 4043,
      "airship": 4044,
      "player": 4045,
      "differently": 4046,
      "answered": 4047,
      "safely": 4048,
      "studies": 4049,
      "communicating": 4050,
      "runs": 4051,
      "describing": 4052,
      "racist": 4053,
      "virt": 4054,
      "persu": 4055,
      "laying": 4056,
      "bullying": 4057,
      "hospital": 4058,
      "degrees": 4059,
      "Get": 4060,
      "cup": 4061,
      "hook": 4062,
      "pants": 4063,
      "ret": 4064,
      "remem": 4065,
      "recor": 4066,
      "ern": 4067,
      "opposit": 4068,
      "mode": 4069,
      "tian": 4070,
      "proven": 4071,
      "tood": 4072,
      "hoping": 4073,
      "series": 4074,
      "corr": 4075,
      "brea": 4076,
      "besides": 4077,
      "contains": 4078,
      "mentions": 4079,
      "symbol": 4080,
      "rushing": 4081,
      "engineers": 4082,
      "tumbleweeds": 4083,
      "frustrated": 4084,
      "civiliz": 4085,
      "medicine": 4086,
      "ners": 4087,
      "spl": 4088,
      "zing": 4089,
      "belong": 4090,
      "abhor": 4091,
      "plus": 4092,
      "grass": 4093,
      "illy": 4094,
      "effic": 4095,
      "ager": 4096,
      "agreed": 4097,
      "lake": 4098,
      "researching": 4099,
      "burn": 4100,
      "basis": 4101,
      "cream": 4102,
      "sadness": 4103,
      "seriously": 4104,
      "encountered": 4105,
      "funniest": 4106,
      "constructing": 4107,
      "understood": 4108,
      "photo": 4109,
      "fal": 4110,
      "ible": 4111,
      "instantly": 4112,
      "ory": 4113,
      "advert": 4114,
      "ching": 4115,
      "otes": 4116,
      "ford": 4117,
      "ably": 4118,
      "cyclists": 4119,
      "soccer": 4120,
      "certainly": 4121,
      "adding": 4122,
      "bling": 4123,
      "results": 4124,
      "basic": 4125,
      "purposes": 4126,
      "paying": 4127,
      "DATE3": 4128,
      "powerful": 4129,
      "taller": 4130,
      "treated": 4131,
      "provides": 4132,
      "................": 4133,
      "aspect": 4134,
      "Reading": 4135,
      "lifestyle": 4136,
      "gro": 4137,
      "hat": 4138,
      "pup": 4139,
      "tex": 4140,
      "tant": 4141,
      "€": 4142,
      "tho": 4143,
      "tomorrow": 4144,
      "youtube": 4145,
      "unfair": 4146,
      "rys": 4147,
      "CAPS20": 4148,
      "predic": 4149,
      "Ange": 4150,
      "igning": 4151,
      "drank": 4152,
      "adds": 4153,
      "porch": 4154,
      "bringing": 4155,
      "addiction": 4156,
      "keys": 4157,
      "constructed": 4158,
      "warning": 4159,
      "Los": 4160,
      "profanity": 4161,
      "fortunately": 4162,
      "quality": 4163,
      "image": 4164,
      "duties": 4165,
      "opposite": 4166,
      "cake": 4167,
      "flight": 4168,
      "slight": 4169,
      "sips": 4170,
      "inspir": 4171,
      "bel": 4172,
      "wasting": 4173,
      "option": 4174,
      "users": 4175,
      "uncomfortable": 4176,
      "constant": 4177,
      "progress": 4178,
      "aircraft": 4179,
      "smoo": 4180,
      "credi": 4181,
      "exciting": 4182,
      "welcoming": 4183,
      "surrounding": 4184,
      "assignment": 4185,
      "original": 4186,
      "Angeles": 4187,
      "ED": 4188,
      "Ob": 4189,
      "cd": 4190,
      "gang": 4191,
      "hug": 4192,
      "mas": 4193,
      "mud": 4194,
      "pushed": 4195,
      "sending": 4196,
      "reco": 4197,
      "tori": 4198,
      "encourage": 4199,
      "ises": 4200,
      "stared": 4201,
      "lies": 4202,
      "comb": 4203,
      "among": 4204,
      "cyber": 4205,
      "interaction": 4206,
      "lower": 4207,
      "actual": 4208,
      "letters": 4209,
      "scent": 4210,
      "passion": 4211,
      "hopeless": 4212,
      "experienced": 4213,
      "expresses": 4214,
      "beauty": 4215,
      "resources": 4216,
      "dating": 4217,
      "fu": 4218,
      "fro": 4219,
      "mic": 4220,
      "mus": 4221,
      "sorts": 4222,
      "rele": 4223,
      "alco": 4224,
      "essays": 4225,
      "bec": 4226,
      "bered": 4227,
      "stain": 4228,
      "lied": 4229,
      "brown": 4230,
      "deer": 4231,
      "dian": 4232,
      "childern": 4233,
      "drag": 4234,
      "believed": 4235,
      "disappe": 4236,
      "restaur": 4237,
      "heads": 4238,
      "descrip": 4239,
      "destined": 4240,
      "cute": 4241,
      "attached": 4242,
      "perfectly": 4243,
      "welcome": 4244,
      "appreciation": 4245,
      "scenes": 4246,
      "annoying": 4247,
      "hazard": 4248,
      "flew": 4249,
      "Each": 4250,
      "Off": 4251,
      "Person": 4252,
      "caut": 4253,
      "squ": 4254,
      "orm": 4255,
      "chr": 4256,
      "lights": 4257,
      "constit": 4258,
      "ension": 4259,
      "Than": 4260,
      "cycle": 4261,
      "agrees": 4262,
      "forms": 4263,
      "percent": 4264,
      "???.": 4265,
      "distant": 4266,
      "awesome": 4267,
      "decides": 4268,
      "expressed": 4269,
      "races": 4270,
      "decreas": 4271,
      "customers": 4272,
      "publish": 4273,
      "witting": 4274,
      "repeatedly": 4275,
      "rysler": 4276,
      "AL": 4277,
      "NO": 4278,
      "Please": 4279,
      "mly": 4280,
      "invent": 4281,
      "incredi": 4282,
      "unable": 4283,
      "unities": 4284,
      "ackle": 4285,
      "hopes": 4286,
      "walks": 4287,
      "cried": 4288,
      "cares": 4289,
      "classroom": 4290,
      "pedal": 4291,
      "smarter": 4292,
      "viewed": 4293,
      "blocked": 4294,
      "rape": 4295,
      "paint": 4296,
      "mission": 4297,
      "necessarily": 4298,
      "obsticle": 4299,
      "roller": 4300,
      "ridiculously": 4301,
      "effective": 4302,
      "companies": 4303,
      "immediately": 4304,
      "smooth": 4305,
      "25": 4306,
      "IT": 4307,
      "lone": 4308,
      "ture": 4309,
      "inspire": 4310,
      "bey": 4311,
      "aded": 4312,
      "adays": 4313,
      "amed": 4314,
      "somethings": 4315,
      "friendships": 4316,
      "happend": 4317,
      ".\"@": 4318,
      "crit": 4319,
      "Does": 4320,
      "nology": 4321,
      "rules": 4322,
      "breakfast": 4323,
      "perspe": 4324,
      "lifes": 4325,
      "pulling": 4326,
      "finger": 4327,
      "organized": 4328,
      "swimming": 4329,
      "mountain": 4330,
      "affecting": 4331,
      "Both": 4332,
      "wittingly": 4333,
      "250": 4334,
      "Can": 4335,
      "LD": 4336,
      "bree": 4337,
      "bits": 4338,
      "ison": 4339,
      "ites": 4340,
      "timers": 4341,
      "shy": 4342,
      "pole": 4343,
      "essential": 4344,
      "shower": 4345,
      "strangers": 4346,
      "guar": 4347,
      "educate": 4348,
      "signific": 4349,
      "keyboard": 4350,
      "refuel": 4351,
      "adapting": 4352,
      "struggled": 4353,
      "AD": 4354,
      "Especially": 4355,
      "Know": 4356,
      "May": 4357,
      "fan": 4358,
      "fash": 4359,
      "lish": 4360,
      "witch": 4361,
      "reve": 4362,
      "atleast": 4363,
      "total": 4364,
      "ause": 4365,
      "rider": 4366,
      "boss": 4367,
      "sett": 4368,
      "join": 4369,
      "passes": 4370,
      "planes": 4371,
      "biker": 4372,
      "Nothing": 4373,
      "confused": 4374,
      "entertaining": 4375,
      "sleeping": 4376,
      "figured": 4377,
      "equip": 4378,
      "provided": 4379,
      "responsible": 4380,
      "regularly": 4381,
      "candy": 4382,
      "remembered": 4383,
      "recogn": 4384,
      "Right": 4385,
      "ale": 4386,
      "dent": 4387,
      "soul": 4388,
      "alizing": 4389,
      "chuck": 4390,
      "chances": 4391,
      "libar": 4392,
      "unwittingly": 4393,
      "builder": 4394,
      "hip": 4395,
      "afford": 4396,
      "prefer": 4397,
      "airport": 4398,
      "izes": 4399,
      "hopefully": 4400,
      "planting": 4401,
      "alian": 4402,
      "Chrysler": 4403,
      "welcomed": 4404,
      "steps": 4405,
      "responsibility": 4406,
      "1930": 4407,
      "gorge": 4408,
      "symbolizes": 4409,
      "portray": 4410,
      "twice": 4411,
      "loo": 4412,
      "mates": 4413,
      "national": 4414,
      "pair": 4415,
      "pizz": 4416,
      "stance": 4417,
      "chur": 4418,
      "lift": 4419,
      "pee": 4420,
      "consum": 4421,
      "locked": 4422,
      "everytime": 4423,
      "factors": 4424,
      "Whenever": 4425,
      "aging": 4426,
      "hardest": 4427,
      "Safe": 4428,
      "finan": 4429,
      "intended": 4430,
      "dislike": 4431,
      "faith": 4432,
      "Life": 4433,
      "greater": 4434,
      "relief": 4435,
      "priv": 4436,
      "price": 4437,
      "studying": 4438,
      "repeat": 4439,
      "poeple": 4440,
      "alcohol": 4441,
      "?'": 4442,
      "AS": 4443,
      "cast": 4444,
      "cket": 4445,
      "eep": 4446,
      "eigh": 4447,
      "may": 4448,
      "pen": 4449,
      "xes": 4450,
      "’’": 4451,
      "inj": 4452,
      "ades": 4453,
      "cher": 4454,
      "sharing": 4455,
      "somewhat": 4456,
      "ups": 4457,
      "NUM7": 4458,
      "newsp": 4459,
      "paragraphs": 4460,
      "informed": 4461,
      "gratefull": 4462,
      "managed": 4463,
      "Only": 4464,
      "viewing": 4465,
      "technolog": 4466,
      "shortcut": 4467,
      "wheel": 4468,
      "failure": 4469,
      "depending": 4470,
      "ulties": 4471,
      "potentially": 4472,
      "screamed": 4473,
      "occurred": 4474,
      "istics": 4475,
      "thrown": 4476,
      "beacuse": 4477,
      "Offensive": 4478,
      ".@": 4479,
      "SE": 4480,
      "Yet": 4481,
      "dumb": 4482,
      "foul": 4483,
      "ody": 4484,
      "infront": 4485,
      "auto": 4486,
      "tim": 4487,
      "shes": 4488,
      "offens": 4489,
      "bye": 4490,
      "CAPS22": 4491,
      "familys": 4492,
      "childs": 4493,
      "address": 4494,
      "educated": 4495,
      "hunting": 4496,
      "camping": 4497,
      "sunny": 4498,
      "silent": 4499,
      "ators": 4500,
      "shelve": 4501,
      "ratings": 4502,
      "Students": 4503,
      "anchor": 4504,
      "civilization": 4505,
      "pizza": 4506,
      "BE": 4507,
      "Span": 4508,
      "ghe": 4509,
      "ives": 4510,
      "mble": 4511,
      "py": 4512,
      "sess": 4513,
      "xious": 4514,
      "alt": 4515,
      "til": 4516,
      "feast": 4517,
      "nec": 4518,
      "amp": 4519,
      "pling": 4520,
      "urity": 4521,
      "deple": 4522,
      "noon": 4523,
      "facing": 4524,
      "ighed": 4525,
      "download": 4526,
      "hyster": 4527,
      "counter": 4528,
      "mile": 4529,
      "complic": 4530,
      "socialize": 4531,
      "difficulties": 4532,
      "architect": 4533,
      "bottom": 4534,
      "selflessness": 4535,
      "influenced": 4536,
      "expected": 4537,
      "appreciate": 4538,
      "tools": 4539,
      "restrictions": 4540,
      "glasses": 4541,
      "diction": 4542,
      "climate": 4543,
      "impressed": 4544,
      "dessert": 4545,
      "Spanish": 4546,
      ",'": 4547,
      "IS": 4548,
      "Keep": 4549,
      "Never": 4550,
      "Tech": 4551,
      "blast": 4552,
      "ca": 4553,
      "gri": 4554,
      "gest": 4555,
      "rushed": 4556,
      "sence": 4557,
      "wed": 4558,
      "wers": 4559,
      "hell": 4560,
      "oment": 4561,
      "tips": 4562,
      "ferent": 4563,
      "god": 4564,
      "ulty": 4565,
      "deli": 4566,
      "polit": 4567,
      "designing": 4568,
      "AND": 4569,
      "cise": 4570,
      "realy": 4571,
      "spends": 4572,
      "concluding": 4573,
      "untill": 4574,
      "chocol": 4575,
      "isnt": 4576,
      "holds": 4577,
      "racial": 4578,
      "moral": 4579,
      "signs": 4580,
      "troubles": 4581,
      "romance": 4582,
      "emphas": 4583,
      "Others": 4584,
      "individuals": 4585,
      "million": 4586,
      "located": 4587,
      "dreams": 4588,
      "ING": 4589,
      "giggle": 4590,
      "surprised": 4591,
      "published": 4592,
      "disappointed": 4593,
      "restaurant": 4594,
      "constitution": 4595,
      "fashion": 4596,
      "gorgeous": 4597,
      "Safety": 4598,
      "fights": 4599,
      "raf": 4600,
      "vary": 4601,
      "inting": 4602,
      "ening": 4603,
      "aragraph": 4604,
      "wether": 4605,
      "notes": 4606,
      "shell": 4607,
      "giant": 4608,
      "spr": 4609,
      "poll": 4610,
      "object": 4611,
      "presid": 4612,
      "wrap": 4613,
      "cuss": 4614,
      "Builders": 4615,
      "extent": 4616,
      "planet": 4617,
      "teenage": 4618,
      "occas": 4619,
      "amounts": 4620,
      "response": 4621,
      "respectful": 4622,
      "slide": 4623,
      "seats": 4624,
      "advantages": 4625,
      "walls": 4626,
      "dressed": 4627,
      "balloon": 4628,
      "behavior": 4629,
      "announ": 4630,
      "invented": 4631,
      "church": 4632,
      "(¶": 4633,
      "Look": 4634,
      "Lear": 4635,
      "OO": 4636,
      "cities": 4637,
      "evid": 4638,
      "mand": 4639,
      "sched": 4640,
      "antic": 4641,
      "asing": 4642,
      "esc": 4643,
      "bell": 4644,
      "wet": 4645,
      "oper": 4646,
      "according": 4647,
      "plo": 4648,
      "define": 4649,
      "poli": 4650,
      "seek": 4651,
      "affic": 4652,
      "ously": 4653,
      "prot": 4654,
      "intrest": 4655,
      "scient": 4656,
      "discovered": 4657,
      "freinds": 4658,
      "leading": 4659,
      "smiles": 4660,
      "camera": 4661,
      "travelling": 4662,
      "charge": 4663,
      "approve": 4664,
      "cultur": 4665,
      "plies": 4666,
      "spires": 4667,
      "fifteen": 4668,
      "aspects": 4669,
      "bumpy": 4670,
      "selection": 4671,
      "relieved": 4672,
      "drama": 4673,
      "differnt": 4674,
      "disturbing": 4675,
      "equipment": 4676,
      "newspapers": 4677,
      "chocolate": 4678,
      "De": 4679,
      "Nob": 4680,
      "Sp": 4681,
      "VE": 4682,
      "dat": 4683,
      "eli": 4684,
      "fir": 4685,
      "pit": 4686,
      "pride": 4687,
      "ordered": 4688,
      "edia": 4689,
      "bear": 4690,
      "seve": 4691,
      "seperate": 4692,
      "terri": 4693,
      "Italian": 4694,
      "ores": 4695,
      "coaster": 4696,
      "handy": 4697,
      "rings": 4698,
      "stops": 4699,
      "phr": 4700,
      "Firstly": 4701,
      "completed": 4702,
      "struggles": 4703,
      "!!!": 4704,
      "animal": 4705,
      "latest": 4706,
      "thirty": 4707,
      "Going": 4708,
      "tolerant": 4709,
      "ramsh": 4710,
      "exhausted": 4711,
      "Nobody": 4712,
      "Fri": 4713,
      "School": 4714,
      "bs": 4715,
      "kick": 4716,
      "inaprop": 4717,
      "stage": 4718,
      "ado": 4719,
      "wearing": 4720,
      "accur": 4721,
      "shoot": 4722,
      "answers": 4723,
      "soci": 4724,
      "genre": 4725,
      "intense": 4726,
      "ticket": 4727,
      "landed": 4728,
      "stressed": 4729,
      "biking": 4730,
      "humble": 4731,
      "horror": 4732,
      "weekend": 4733,
      "enviroment": 4734,
      "entirely": 4735,
      "innocent": 4736,
      "tasks": 4737,
      "forceful": 4738,
      "introduced": 4739,
      "sacrificed": 4740,
      "title": 4741,
      "dancing": 4742,
      "dirty": 4743,
      "economy": 4744,
      "gift": 4745,
      "dirig": 4746,
      "Personally": 4747,
      "Clear": 4748,
      "lam": 4749,
      "pines": 4750,
      "pave": 4751,
      "ppling": 4752,
      "ases": 4753,
      "sear": 4754,
      "secre": 4755,
      "vei": 4756,
      "accep": 4757,
      "ghter": 4758,
      "pel": 4759,
      "gear": 4760,
      "abuse": 4761,
      "somehow": 4762,
      "dee": 4763,
      "gather": 4764,
      "asty": 4765,
      "mph": 4766,
      "traffic": 4767,
      "banning": 4768,
      "reson": 4769,
      "hurry": 4770,
      "religious": 4771,
      "drinks": 4772,
      "imagination": 4773,
      "approached": 4774,
      "construct": 4775,
      "raise": 4776,
      "lifting": 4777,
      "assigned": 4778,
      "blowing": 4779,
      "strict": 4780,
      "balloons": 4781,
      "spoke": 4782,
      "false": 4783,
      "Technology": 4784,
      "escape": 4785,
      ".)": 4786,
      "Ever": 4787,
      "Hand": 4788,
      "Love": 4789,
      "ived": 4790,
      "ky": 4791,
      "pour": 4792,
      "tou": 4793,
      "yed": 4794,
      "reply": 4795,
      "attr": 4796,
      "altern": 4797,
      "ows": 4798,
      "chan": 4799,
      "ots": 4800,
      "rivers": 4801,
      "verse": 4802,
      "tick": 4803,
      "amond": 4804,
      "pos": 4805,
      "trash": 4806,
      "prev": 4807,
      "gained": 4808,
      "graphy": 4809,
      "selfs": 4810,
      "sually": 4811,
      "spell": 4812,
      "displayed": 4813,
      "enjoyment": 4814,
      "cracking": 4815,
      "wondered": 4816,
      "maturity": 4817,
      "personality": 4818,
      "sounded": 4819,
      "focused": 4820,
      "emotional": 4821,
      "product": 4822,
      "surprise": 4823,
      "massive": 4824,
      "purchase": 4825,
      "observation": 4826,
      "lonely": 4827,
      "perspective": 4828,
      "awhile": 4829,
      "eld": 4830,
      "gate": 4831,
      "ime": 4832,
      "pin": 4833,
      "rang": 4834,
      "vic": 4835,
      "zz": 4836,
      "zep": 4837,
      "alking": 4838,
      "secure": 4839,
      "soda": 4840,
      "saves": 4841,
      "obtain": 4842,
      "evening": 4843,
      "yeah": 4844,
      "gaining": 4845,
      "function": 4846,
      "dying": 4847,
      "cursing": 4848,
      "pointed": 4849,
      "crippling": 4850,
      "nearby": 4851,
      "emails": 4852,
      "regard": 4853,
      "speaker": 4854,
      "quietly": 4855,
      "religions": 4856,
      "involve": 4857,
      "throwing": 4858,
      "restricted": 4859,
      "pushing": 4860,
      "values": 4861,
      "tests": 4862,
      "woods": 4863,
      "debate": 4864,
      "curious": 4865,
      "aunts": 4866,
      "tantalizing": 4867,
      "cultural": 4868,
      "Clearly": 4869,
      "pavement": 4870,
      "Con": 4871,
      "Usually": 4872,
      "fond": 4873,
      "link": 4874,
      "nasty": 4875,
      "pure": 4876,
      "tension": 4877,
      "segregation": 4878,
      "options": 4879,
      "comment": 4880,
      "histori": 4881,
      "teeth": 4882,
      "otherwise": 4883,
      "diamond": 4884,
      "cising": 4885,
      "worlds": 4886,
      "speaking": 4887,
      "ears": 4888,
      "singing": 4889,
      "asks": 4890,
      "frequ": 4891,
      "hurts": 4892,
      "difficulty": 4893,
      "casue": 4894,
      "welve": 4895,
      "celebrate": 4896,
      "assignments": 4897,
      "challenging": 4898,
      "products": 4899,
      "elementary": 4900,
      "comedy": 4901,
      "embarrassed": 4902,
      "directly": 4903,
      "ghest": 4904,
      "lor": 4905,
      "ni": 4906,
      "ns": 4907,
      "nud": 4908,
      "pal": 4909,
      "smo": 4910,
      "sus": 4911,
      "sink": 4912,
      "uct": 4913,
      "“…": 4914,
      "regre": 4915,
      "ishes": 4916,
      "alway": 4917,
      "secur": 4918,
      "arn": 4919,
      "term": 4920,
      "bust": 4921,
      "spin": 4922,
      "typed": 4923,
      "ORGANIZATION": 4924,
      "THAT": 4925,
      "perhaps": 4926,
      "hardworking": 4927,
      "realistic": 4928,
      "Something": 4929,
      "pointless": 4930,
      "heading": 4931,
      "couraged": 4932,
      "substance": 4933,
      "files": 4934,
      "invited": 4935,
      "charact": 4936,
      "attack": 4937,
      "electri": 4938,
      "blooming": 4939,
      "exersize": 4940,
      "oppinion": 4941,
      "convin": 4942,
      "fantastic": 4943,
      "LE": 4944,
      "Pro": 4945,
      "dirt": 4946,
      "rit": 4947,
      "rise": 4948,
      "ued": 4949,
      "voc": 4950,
      "selling": 4951,
      "chite": 4952,
      "compet": 4953,
      "ference": 4954,
      "grape": 4955,
      "yours": 4956,
      "pod": 4957,
      "lifetime": 4958,
      "hasn": 4959,
      "certian": 4960,
      "via": 4961,
      "stepped": 4962,
      "expert": 4963,
      "intelli": 4964,
      "bikes": 4965,
      "considering": 4966,
      "machine": 4967,
      "blooms": 4968,
      "shelter": 4969,
      "sugges": 4970,
      "discuss": 4971,
      "crowded": 4972,
      "Archite": 4973,
      "elimin": 4974,
      "characters": 4975,
      "aked": 4976,
      "bited": 4977,
      "cate": 4978,
      "center": 4979,
      "kne": 4980,
      "twelve": 4981,
      "vital": 4982,
      "whel": 4983,
      "wars": 4984,
      "aning": 4985,
      "iron": 4986,
      "neat": 4987,
      "icy": 4988,
      "anytime": 4989,
      "consequ": 4990,
      "tear": 4991,
      "butt": 4992,
      "brave": 4993,
      "owner": 4994,
      "achieve": 4995,
      "aint": 4996,
      "suic": 4997,
      "joined": 4998,
      "joyful": 4999,
      "burning": 5000,
      "compared": 5001,
      "alike": 5002,
      "horri": 5003,
      "silence": 5004,
      "enery": 5005,
      "respond": 5006,
      "devast": 5007,
      "devices": 5008,
      "expanded": 5009,
      "offered": 5010,
      "stainless": 5011,
      "breeze": 5012,
      "Dr": 5013,
      "Wel": 5014,
      "dull": 5015,
      "eve": 5016,
      "hic": 5017,
      "kic": 5018,
      "mit": 5019,
      "ats": 5020,
      "atic": 5021,
      "itled": 5022,
      "peers": 5023,
      "dose": 5024,
      "anted": 5025,
      "librarie": 5026,
      "formation": 5027,
      "strain": 5028,
      "household": 5029,
      "chee": 5030,
      "earch": 5031,
      "stands": 5032,
      "blings": 5033,
      "served": 5034,
      "attempts": 5035,
      "crime": 5036,
      "opening": 5037,
      "remembering": 5038,
      "bloss": 5039,
      "complained": 5040,
      "fails": 5041,
      "rapid": 5042,
      "admit": 5043,
      "concerns": 5044,
      "shots": 5045,
      "Adults": 5046,
      "comunicate": 5047,
      "president": 5048,
      "historical": 5049,
      "Back": 5050,
      "BOO": 5051,
      "ec": 5052,
      "hilly": 5053,
      "mary": 5054,
      "obe": 5055,
      "tin": 5056,
      "…”": 5057,
      "anced": 5058,
      "reward": 5059,
      "ercial": 5060,
      "toy": 5061,
      "eness": 5062,
      "ashed": 5063,
      "becasue": 5064,
      "owing": 5065,
      "lik": 5066,
      "ooting": 5067,
      "tire": 5068,
      "abil": 5069,
      "consist": 5070,
      "tey": 5071,
      "proving": 5072,
      "para": 5073,
      "artists": 5074,
      "dried": 5075,
      "dissa": 5076,
      "realizing": 5077,
      "ignor": 5078,
      "stoped": 5079,
      "Online": 5080,
      "skate": 5081,
      "planted": 5082,
      "stars": 5083,
      "sacraf": 5084,
      "negatively": 5085,
      "morals": 5086,
      "freely": 5087,
      "presented": 5088,
      "seasons": 5089,
      "shock": 5090,
      "surrounded": 5091,
      "machines": 5092,
      "promise": 5093,
      "despair": 5094,
      "equal": 5095,
      "copy": 5096,
      "puncture": 5097,
      "pleasure": 5098,
      "prepare": 5099,
      "applic": 5100,
      "collap": 5101,
      "documents": 5102,
      "texting": 5103,
      "deemed": 5104,
      "Architects": 5105,
      "blossom": 5106,
      "BOOK": 5107,
      "Bes": 5108,
      "Navy": 5109,
      "OM": 5110,
      "gust": 5111,
      "pi": 5112,
      "pm": 5113,
      "rs": 5114,
      "vast": 5115,
      "reaches": 5116,
      "ene": 5117,
      "envior": 5118,
      "enorm": 5119,
      "hey": 5120,
      "weighed": 5121,
      "ache": 5122,
      "shade": 5123,
      "shiny": 5124,
      "grants": 5125,
      "oung": 5126,
      "clue": 5127,
      "Three": 5128,
      "useing": 5129,
      "players": 5130,
      "moms": 5131,
      "permission": 5132,
      "genres": 5133,
      "Newark": 5134,
      "blond": 5135,
      "hopeful": 5136,
      "corn": 5137,
      "siblings": 5138,
      "bedroom": 5139,
      "reliable": 5140,
      "expressing": 5141,
      "dogs": 5142,
      "floors": 5143,
      "conversations": 5144,
      "arguments": 5145,
      "thirteen": 5146,
      "Authors": 5147,
      "safty": 5148,
      "controversial": 5149,
      "explode": 5150,
      "breathe": 5151,
      "beyond": 5152,
      "ramshackle": 5153,
      "nudity": 5154,
      "security": 5155,
      "HI": 5156,
      "Out": 5157,
      "cards": 5158,
      "dom": 5159,
      "eed": 5160,
      "fy": 5161,
      "hated": 5162,
      "match": 5163,
      "native": 5164,
      "pon": 5165,
      "react": 5166,
      "becau": 5167,
      "stal": 5168,
      "stare": 5169,
      "meals": 5170,
      "wash": 5171,
      "myster": 5172,
      "endure": 5173,
      "degree": 5174,
      "noise": 5175,
      "CAPS24": 5176,
      "objects": 5177,
      "ables": 5178,
      "engines": 5179,
      "badly": 5180,
      "display": 5181,
      "afternoon": 5182,
      "bank": 5183,
      "manner": 5184,
      "Unfortunately": 5185,
      "blocks": 5186,
      "fourth": 5187,
      "risks": 5188,
      "Removing": 5189,
      "cleaning": 5190,
      "messing": 5191,
      "increased": 5192,
      "snack": 5193,
      "embarrassing": 5194,
      "separate": 5195,
      "updated": 5196,
      "Learning": 5197,
      "veiw": 5198,
      "Des": 5199,
      "Winds": 5200,
      "agi": 5201,
      "aled": 5202,
      "bid": 5203,
      "fence": 5204,
      "fla": 5205,
      "ration": 5206,
      "sar": 5207,
      "soo": 5208,
      "sne": 5209,
      "ume": 5210,
      "yo": 5211,
      "itar": 5212,
      "aries": 5213,
      "uts": 5214,
      "wasted": 5215,
      "wife": 5216,
      "forty": 5217,
      "tight": 5218,
      "rocks": 5219,
      "uncontroll": 5220,
      "improved": 5221,
      "upstairs": 5222,
      "saving": 5223,
      "librarians": 5224,
      "overwhel": 5225,
      "highest": 5226,
      "healthier": 5227,
      "possibility": 5228,
      "hurtful": 5229,
      "dealing": 5230,
      "occup": 5231,
      "spirits": 5232,
      "appreciative": 5233,
      "earthqu": 5234,
      "hiding": 5235,
      "gentle": 5236,
      "prohibited": 5237,
      "apolo": 5238,
      "chrome": 5239,
      "Thanks": 5240,
      "significant": 5241,
      "refueling": 5242,
      "police": 5243,
      "zeppel": 5244,
      "Besides": 5245,
      "enormous": 5246,
      "**": 5247,
      "Oh": 5248,
      "Paragraph": 5249,
      "bun": 5250,
      "double": 5251,
      "eren": 5252,
      "gs": 5253,
      "junk": 5254,
      "ole": 5255,
      "range": 5256,
      "thro": 5257,
      "incident": 5258,
      "replace": 5259,
      "reaction": 5260,
      "refresh": 5261,
      "atta": 5262,
      "toll": 5263,
      "encing": 5264,
      "ordin": 5265,
      "asting": 5266,
      "meth": 5267,
      "nel": 5268,
      "ional": 5269,
      "terms": 5270,
      "ified": 5271,
      "bum": 5272,
      "appor": 5273,
      "spark": 5274,
      "bodies": 5275,
      "Theres": 5276,
      "differences": 5277,
      "Comm": 5278,
      "minor": 5279,
      "trick": 5280,
      "enjoys": 5281,
      "fake": 5282,
      "deserve": 5283,
      "maintain": 5284,
      "TIME": 5285,
      "concert": 5286,
      "milk": 5287,
      "meric": 5288,
      "market": 5289,
      "twist": 5290,
      "increasing": 5291,
      "depressing": 5292,
      "crafts": 5293,
      "excersise": 5294,
      "properly": 5295,
      "encive": 5296,
      "bilities": 5297,
      "literally": 5298,
      "pounds": 5299,
      "tasted": 5300,
      "suffer": 5301,
      "grocer": 5302,
      "data": 5303,
      "Dif": 5304,
      "Fe": 5305,
      "Juice": 5306,
      "Luck": 5307,
      "Making": 5308,
      "cred": 5309,
      "fur": 5310,
      "ipped": 5311,
      "lly": 5312,
      "rup": 5313,
      "sop": 5314,
      "inappropiate": 5315,
      "revol": 5316,
      "meal": 5317,
      "accid": 5318,
      "peb": 5319,
      "shooting": 5320,
      "entered": 5321,
      "unlike": 5322,
      "unpredic": 5323,
      "conven": 5324,
      "imm": 5325,
      "geting": 5326,
      "CAPS23": 5327,
      "Thus": 5328,
      "joking": 5329,
      "ization": 5330,
      "commercial": 5331,
      "dads": 5332,
      "bio": 5333,
      "buds": 5334,
      "creation": 5335,
      "porches": 5336,
      "elev": 5337,
      "freedoms": 5338,
      "gging": 5339,
      "gged": 5340,
      "attend": 5341,
      "refuge": 5342,
      "catching": 5343,
      "benifits": 5344,
      "electric": 5345,
      "humorous": 5346,
      "opportunities": 5347,
      "appointment": 5348,
      "adventures": 5349,
      "originally": 5350,
      "Studies": 5351,
      "film": 5352,
      "circled": 5353,
      "distracted": 5354,
      "murder": 5355,
      "description": 5356,
      "Friends": 5357,
      "accurate": 5358,
      "Welch": 5359,
      "10": 5360,
      "Again": 5361,
      "Americ": 5362,
      "Hope": 5363,
      "Ok": 5364,
      "Put": 5365,
      "Try": 5366,
      "coo": 5367,
      "coffe": 5368,
      "hob": 5369,
      "pitch": 5370,
      "sens": 5371,
      "tition": 5372,
      "trem": 5373,
      "ww": 5374,
      "wards": 5375,
      "thay": 5376,
      "instru": 5377,
      "returned": 5378,
      "eday": 5379,
      "stret": 5380,
      "adop": 5381,
      "metal": 5382,
      "compe": 5383,
      "terday": 5384,
      "parties": 5385,
      "kidnap": 5386,
      "wave": 5387,
      "stumble": 5388,
      "memior": 5389,
      "inten": 5390,
      "Within": 5391,
      "career": 5392,
      "monitor": 5393,
      "rainy": 5394,
      "teams": 5395,
      "value": 5396,
      "babysit": 5397,
      "excersize": 5398,
      "receive": 5399,
      "globe": 5400,
      "electronic": 5401,
      "electronics": 5402,
      "demonstration": 5403,
      "advertise": 5404,
      "dictionary": 5405,
      "Spending": 5406,
      "categor": 5407,
      "YOU": 5408,
      "cab": 5409,
      "lung": 5410,
      "reci": 5411,
      "asy": 5412,
      "ads": 5413,
      "compar": 5414,
      "sore": 5415,
      "ender": 5416,
      "excell": 5417,
      "contr": 5418,
      "convi": 5419,
      "offencive": 5420,
      "nowadays": 5421,
      "ssed": 5422,
      "everyones": 5423,
      "produc": 5424,
      "itement": 5425,
      "Along": 5426,
      "cussing": 5427,
      "handed": 5428,
      "windy": 5429,
      "highway": 5430,
      "scar": 5431,
      "networks": 5432,
      "mane": 5433,
      "completly": 5434,
      "Exer": 5435,
      "invo": 5436,
      "thankfulness": 5437,
      "ugged": 5438,
      "atory": 5439,
      "destroying": 5440,
      "cleaned": 5441,
      "bullied": 5442,
      "developed": 5443,
      "OULD": 5444,
      "crowd": 5445,
      "magizines": 5446,
      "split": 5447,
      "Obviously": 5448,
      "dentist": 5449,
      "eighteen": 5450,
      "Sud": 5451,
      "Time": 5452,
      "hack": 5453,
      "nur": 5454,
      "pond": 5455,
      "tha": 5456,
      "thin": 5457,
      "anxious": 5458,
      "atmo": 5459,
      "stances": 5460,
      "staff": 5461,
      "opin": 5462,
      "acy": 5463,
      "kel": 5464,
      "concent": 5465,
      "tag": 5466,
      "gage": 5467,
      "trou": 5468,
      "desire": 5469,
      "greatfull": 5470,
      "forest": 5471,
      "labe": 5472,
      "clothing": 5473,
      "relates": 5474,
      "blan": 5475,
      "pedaling": 5476,
      "visiting": 5477,
      "emplo": 5478,
      "porn": 5479,
      "hangout": 5480,
      "containing": 5481,
      "denly": 5482,
      "swear": 5483,
      "Patient": 5484,
      "greatfulness": 5485,
      "reaching": 5486,
      "relaxing": 5487,
      "gases": 5488,
      "jumping": 5489,
      "repetition": 5490,
      "systems": 5491,
      "laptops": 5492,
      "exersise": 5493,
      "fifth": 5494,
      "skype": 5495,
      "introdu": 5496,
      "sacrifices": 5497,
      "claimed": 5498,
      "inspiration": 5499,
      "muscles": 5500,
      "decrease": 5501,
      "financially": 5502,
      "altitude": 5503,
      "searched": 5504,
      "abilities": 5505,
      "method": 5506,
      "Communic": 5507,
      "refugees": 5508,
      "tremend": 5509,
      "AR": 5510,
      "En": 5511,
      "Gary": 5512,
      "Grape": 5513,
      "nie": 5514,
      "rarely": 5515,
      "ske": 5516,
      "south": 5517,
      "’@": 5518,
      "theory": 5519,
      "remembers": 5520,
      "toys": 5521,
      "befor": 5522,
      "stream": 5523,
      "chating": 5524,
      "shor": 5525,
      "neces": 5526,
      "cancer": 5527,
      "ours": 5528,
      "bra": 5529,
      "depri": 5530,
      "pointing": 5531,
      "childeren": 5532,
      "Were": 5533,
      "happyness": 5534,
      "longest": 5535,
      "handwriting": 5536,
      "contents": 5537,
      "flames": 5538,
      "tenn": 5539,
      "kindness": 5540,
      "crimin": 5541,
      "possitive": 5542,
      "naked": 5543,
      "foods": 5544,
      "extremly": 5545,
      "largest": 5546,
      "sixth": 5547,
      "numbers": 5548,
      "decades": 5549,
      "boarding": 5550,
      "accepted": 5551,
      "ultim": 5552,
      "depression": 5553,
      "panic": 5554,
      "fifty": 5555,
      "nickel": 5556,
      "disappointment": 5557,
      "circum": 5558,
      "motivation": 5559,
      "corral": 5560,
      "consuming": 5561,
      "automat": 5562,
      "severe": 5563,
      "pouring": 5564,
      "regret": 5565,
      "unpredictable": 5566,
      "Suddenly": 5567,
      "atmosp": 5568,
      "Little": 5569,
      "gaming": 5570,
      "ipod": 5571,
      "mark": 5572,
      "pes": 5573,
      "remov": 5574,
      "chips": 5575,
      "liber": 5576,
      "lions": 5577,
      "oted": 5578,
      "outcome": 5579,
      "entitled": 5580,
      "uplifting": 5581,
      "offers": 5582,
      "apply": 5583,
      "theirs": 5584,
      "rend": 5585,
      "stock": 5586,
      "estab": 5587,
      "previous": 5588,
      "creative": 5589,
      "flor": 5590,
      "clos": 5591,
      "begining": 5592,
      "emer": 5593,
      "struct": 5594,
      "direc": 5595,
      "virus": 5596,
      "trips": 5597,
      "oded": 5598,
      "smaller": 5599,
      "slower": 5600,
      "PERSON6": 5601,
      "arrive": 5602,
      "costs": 5603,
      "recieve": 5604,
      "marks": 5605,
      "deeply": 5606,
      "citizen": 5607,
      "audiences": 5608,
      "bags": 5609,
      "accomplished": 5610,
      "satisfied": 5611,
      "Seeing": 5612,
      "Getting": 5613,
      "record": 5614,
      "model": 5615,
      "disappeared": 5616,
      "incredible": 5617,
      "consequences": 5618,
      "refreshing": 5619,
      "ordinary": 5620,
      "Different": 5621,
      "credit": 5622,
      "coffee": 5623,
      "Air": 5624,
      "Blimp": 5625,
      "Fre": 5626,
      "Qu": 5627,
      "batt": 5628,
      "cot": 5629,
      "fying": 5630,
      "sould": 5631,
      "uld": 5632,
      "wand": 5633,
      "yles": 5634,
      "alled": 5635,
      "seper": 5636,
      "opti": 5637,
      "actors": 5638,
      "shad": 5639,
      "unhappy": 5640,
      "goin": 5641,
      "excep": 5642,
      "brand": 5643,
      "demand": 5644,
      "stones": 5645,
      "astrop": 5646,
      "proceed": 5647,
      "parking": 5648,
      "quotes": 5649,
      "airplanes": 5650,
      "stranger": 5651,
      "perform": 5652,
      "inted": 5653,
      "counts": 5654,
      "eased": 5655,
      "carto": 5656,
      "tempor": 5657,
      "mothers": 5658,
      "understandable": 5659,
      "carefully": 5660,
      "classic": 5661,
      "excitement": 5662,
      "shift": 5663,
      "sooner": 5664,
      "fourteen": 5665,
      "refer": 5666,
      "arrival": 5667,
      "adapted": 5668,
      "preventing": 5669,
      "someday": 5670,
      "spots": 5671,
      "traditions": 5672,
      "winch": 5673,
      "emotionally": 5674,
      "logical": 5675,
      "comforted": 5676,
      "slam": 5677,
      "judgement": 5678,
      "practically": 5679,
      "target": 5680,
      "route": 5681,
      "document": 5682,
      "NOT": 5683,
      "depleting": 5684,
      "announced": 5685,
      "definetly": 5686,
      "frequently": 5687,
      "ORGANIZATION4": 5688,
      "pebbles": 5689,
      "excellent": 5690,
      "troubling": 5691,
      "12": 5692,
      "MA": 5693,
      "Make": 5694,
      "Still": 5695,
      "fas": 5696,
      "farm": 5697,
      "lis": 5698,
      "nights": 5699,
      "rite": 5700,
      "tle": 5701,
      "tiny": 5702,
      "udes": 5703,
      "unex": 5704,
      "lig": 5705,
      "lion": 5706,
      "lighter": 5707,
      "wiped": 5708,
      "outlook": 5709,
      "idi": 5710,
      "rolled": 5711,
      "explan": 5712,
      "concept": 5713,
      "worn": 5714,
      "brow": 5715,
      "prob": 5716,
      "pover": 5717,
      "trop": 5718,
      "Alot": 5719,
      "picks": 5720,
      "flag": 5721,
      "closing": 5722,
      "reluct": 5723,
      "blown": 5724,
      "manage": 5725,
      "guide": 5726,
      "yesterday": 5727,
      "surf": 5728,
      "surely": 5729,
      "grows": 5730,
      "compare": 5731,
      "returning": 5732,
      "truely": 5733,
      "rule": 5734,
      "generally": 5735,
      "payed": 5736,
      "worrying": 5737,
      "exploded": 5738,
      "counters": 5739,
      "Dirigible": 5740,
      "appear": 5741,
      "Anyone": 5742,
      "profess": 5743,
      "requires": 5744,
      "ignored": 5745,
      "cheerful": 5746,
      "correctly": 5747,
      "hidden": 5748,
      "gized": 5749,
      "received": 5750,
      "libra": 5751,
      "distracting": 5752,
      "storm": 5753,
      "computors": 5754,
      "hooked": 5755,
      "................................": 5756,
      "Knowing": 5757,
      "loosing": 5758,
      "phrase": 5759,
      "collapse": 5760,
      "earthquake": 5761,
      "lungs": 5762,
      "atmosphere": 5763,
      "ES": 5764,
      "Material": 5765,
      "Talking": 5766,
      "Was": 5767,
      "boun": 5768,
      "cently": 5769,
      "fool": 5770,
      "fought": 5771,
      "gender": 5772,
      "kin": 5773,
      "pill": 5774,
      "pite": 5775,
      "rage": 5776,
      "rub": 5777,
      "tan": 5778,
      "vil": 5779,
      "insted": 5780,
      "ria": 5781,
      "outdoor": 5782,
      "identi": 5783,
      "user": 5784,
      "maps": 5785,
      "excess": 5786,
      "taxes": 5787,
      "urge": 5788,
      "dear": 5789,
      "stopping": 5790,
      "elses": 5791,
      "ils": 5792,
      "previously": 5793,
      "reasonable": 5794,
      "selfish": 5795,
      "colo": 5796,
      "flash": 5797,
      "partner": 5798,
      "violently": 5799,
      "socializing": 5800,
      "elements": 5801,
      "colors": 5802,
      "odd": 5803,
      "inviting": 5804,
      "loaded": 5805,
      "vows": 5806,
      "precious": 5807,
      "shocked": 5808,
      "layed": 5809,
      "particip": 5810,
      "catastrop": 5811,
      "climb": 5812,
      "american": 5813,
      "knock": 5814,
      "literary": 5815,
      "Thirdly": 5816,
      "prohibit": 5817,
      "efficient": 5818,
      "slightly": 5819,
      "portrayed": 5820,
      "electricity": 5821,
      "suicide": 5822,
      "removal": 5823,
      "closest": 5824,
      "Aleg": 5825,
      "DO": 5826,
      "cti": 5827,
      "gin": 5828,
      "hh": 5829,
      "jail": 5830,
      "marri": 5831,
      "pink": 5832,
      "rum": 5833,
      "uce": 5834,
      "inner": 5835,
      "theat": 5836,
      "ency": 5837,
      "ading": 5838,
      "youre": 5839,
      "havent": 5840,
      "habit": 5841,
      "feat": 5842,
      "shine": 5843,
      "tering": 5844,
      "male": 5845,
      "impractical": 5846,
      "indust": 5847,
      "gathered": 5848,
      "divor": 5849,
      "NUM8": 5850,
      "knowled": 5851,
      "pol": 5852,
      "els": 5853,
      "obsess": 5854,
      "gibles": 5855,
      "owned": 5856,
      "whoever": 5857,
      "pred": 5858,
      "desperate": 5859,
      "agers": 5860,
      "drastic": 5861,
      "scenery": 5862,
      "standards": 5863,
      "teachings": 5864,
      "hoped": 5865,
      "manager": 5866,
      "Everyday": 5867,
      "simpl": 5868,
      "cencor": 5869,
      "leader": 5870,
      "leaders": 5871,
      "buys": 5872,
      "visual": 5873,
      "cedar": 5874,
      "nightm": 5875,
      "porno": 5876,
      "Until": 5877,
      "ruined": 5878,
      "glued": 5879,
      "install": 5880,
      "nament": 5881,
      "prior": 5882,
      "Remember": 5883,
      "risky": 5884,
      "promote": 5885,
      "gardening": 5886,
      "capable": 5887,
      "organize": 5888,
      "throught": 5889,
      "giggling": 5890,
      "windows": 5891,
      "pleasant": 5892,
      "buisnesses": 5893,
      "hallway": 5894,
      "guns": 5895,
      "survival": 5896,
      "tastes": 5897,
      "discrimin": 5898,
      "locker": 5899,
      "shouted": 5900,
      "technological": 5901,
      "hello": 5902,
      "occasion": 5903,
      "elder": 5904,
      "Luckily": 5905,
      "102": 5906,
      "optimis": 5907,
      "Alegria": 5908,
      ").\"": 5909,
      "Hon": 5910,
      "Ty": 5911,
      "US": 5912,
      "bon": 5913,
      "bom": 5914,
      "dim": 5915,
      "master": 5916,
      "rates": 5917,
      "sque": 5918,
      "tent": 5919,
      "ues": 5920,
      "ury": 5921,
      "ware": 5922,
      "wright": 5923,
      "yah": 5924,
      "inct": 5925,
      "ingly": 5926,
      "heav": 5927,
      "chores": 5928,
      "whis": 5929,
      "compt": 5930,
      "habits": 5931,
      "feed": 5932,
      "shoud": 5933,
      "consu": 5934,
      "cean": 5935,
      "imma": 5936,
      "ulary": 5937,
      "grin": 5938,
      "decl": 5939,
      "themes": 5940,
      "ssip": 5941,
      "spit": 5942,
      "sits": 5943,
      "pregn": 5944,
      "trys": 5945,
      "aircrafts": 5946,
      "suck": 5947,
      "spelling": 5948,
      "highschool": 5949,
      "landsc": 5950,
      "nesses": 5951,
      "viewers": 5952,
      "hearts": 5953,
      "growth": 5954,
      "burned": 5955,
      "thankfull": 5956,
      "connecting": 5957,
      "specif": 5958,
      "birthdays": 5959,
      "floating": 5960,
      "explos": 5961,
      "messed": 5962,
      "garage": 5963,
      "winning": 5964,
      "Wouldn": 5965,
      "ivity": 5966,
      "softw": 5967,
      "punish": 5968,
      "adjusting": 5969,
      "choosing": 5970,
      "suggested": 5971,
      "virtual": 5972,
      "inspired": 5973,
      "Looking": 5974,
      "schedule": 5975,
      "secret": 5976,
      "alternative": 5977,
      "vocab": 5978,
      "rapidly": 5979,
      "flavor": 5980,
      "TIME2": 5981,
      "colored": 5982,
      "Could": 5983,
      "GH": 5984,
      "Per": 5985,
      "Reas": 5986,
      "brid": 5987,
      "bicy": 5988,
      "ee": 5989,
      "egg": 5990,
      "vote": 5991,
      "wint": 5992,
      "wished": 5993,
      "rese": 5994,
      "remin": 5995,
      "isol": 5996,
      "arrow": 5997,
      "stun": 5998,
      "weed": 5999,
      "acess": 6000,
      "versity": 6001,
      "sole": 6002,
      "dosen": 6003,
      "uncles": 6004,
      "gold": 6005,
      "gossip": 6006,
      "sale": 6007,
      "span": 6008,
      "pros": 6009,
      "posing": 6010,
      "Inter": 6011,
      "siting": 6012,
      "useless": 6013,
      "usefull": 6014,
      "learns": 6015,
      "obstical": 6016,
      "coast": 6017,
      "cali": 6018,
      "cheese": 6019,
      "scare": 6020,
      "score": 6021,
      "cious": 6022,
      "broad": 6023,
      "guid": 6024,
      "steady": 6025,
      "hotter": 6026,
      "resid": 6027,
      "experim": 6028,
      "visited": 6029,
      "determine": 6030,
      "Exper": 6031,
      "arrives": 6032,
      "Recently": 6033,
      "speaks": 6034,
      "struggling": 6035,
      "marked": 6036,
      "arrange": 6037,
      "request": 6038,
      "Anything": 6039,
      "arguing": 6040,
      "innappropriate": 6041,
      "LOCATION5": 6042,
      "volley": 6043,
      "inventions": 6044,
      "ruining": 6045,
      "advancement": 6046,
      "symbolize": 6047,
      "impression": 6048,
      "thriving": 6049,
      "mirage": 6050,
      "greeted": 6051,
      "boost": 6052,
      "saftey": 6053,
      "micro": 6054,
      "guardian": 6055,
      "libaries": 6056,
      "hysterically": 6057,
      "competition": 6058,
      "ignorant": 6059,
      "accidents": 6060,
      "61": 6061,
      "Young": 6062,
      "drigibles": 6063,
      "ilet": 6064,
      "mber": 6065,
      "mule": 6066,
      "sal": 6067,
      "sigh": 6068,
      "tun": 6069,
      "tub": 6070,
      "vit": 6071,
      "wen": 6072,
      "edi": 6073,
      "edge": 6074,
      "sting": 6075,
      "adic": 6076,
      "cha": 6077,
      "chairs": 6078,
      "forcing": 6079,
      "fellow": 6080,
      "unrealistic": 6081,
      "exited": 6082,
      "framed": 6083,
      "plate": 6084,
      "offins": 6085,
      "safer": 6086,
      "nose": 6087,
      "overcoming": 6088,
      "hike": 6089,
      "Web": 6090,
      "reasoning": 6091,
      "quad": 6092,
      "certin": 6093,
      "umin": 6094,
      "calories": 6095,
      "disgust": 6096,
      "carried": 6097,
      "stays": 6098,
      "cient": 6099,
      "guard": 6100,
      "supports": 6101,
      "writting": 6102,
      "stressful": 6103,
      "mails": 6104,
      "magn": 6105,
      "laun": 6106,
      "lighten": 6107,
      "touching": 6108,
      "entertained": 6109,
      "rope": 6110,
      "dedic": 6111,
      "shake": 6112,
      "designer": 6113,
      "1961": 6114,
      "perser": 6115,
      "expecting": 6116,
      "appreciates": 6117,
      "witness": 6118,
      "homesick": 6119,
      "encounter": 6120,
      "slee": 6121,
      "Teens": 6122,
      "computor": 6123,
      "photos": 6124,
      "puppy": 6125,
      "becuse": 6126,
      "private": 6127,
      "constitutional": 6128,
      "kicked": 6129,
      "sacrafice": 6130,
      "occupied": 6131,
      "Communication": 6132,
      "skele": 6133,
      "offinsive": 6134,
      "/@": 6135,
      "KE": 6136,
      "Sit": 6137,
      "Teach": 6138,
      "leng": 6139,
      "nal": 6140,
      "penc": 6141,
      "wow": 6142,
      "anti": 6143,
      "renew": 6144,
      "toilet": 6145,
      "encounters": 6146,
      "chic": 6147,
      "rip": 6148,
      "feared": 6149,
      "ferences": 6150,
      "haveing": 6151,
      "cel": 6152,
      "indeed": 6153,
      "ount": 6154,
      "deta": 6155,
      "shoulder": 6156,
      "estly": 6157,
      "CAPS27": 6158,
      "typic": 6159,
      "poison": 6160,
      "pleased": 6161,
      "reasearch": 6162,
      "Stat": 6163,
      "prin": 6164,
      "waist": 6165,
      "drunk": 6166,
      "believing": 6167,
      "chest": 6168,
      "scr": 6169,
      "dislikes": 6170,
      "steal": 6171,
      "carter": 6172,
      "jeans": 6173,
      "licking": 6174,
      "supplies": 6175,
      "statements": 6176,
      "popcorn": 6177,
      "Finaly": 6178,
      "negitive": 6179,
      "symp": 6180,
      "advancing": 6181,
      "barri": 6182,
      "imagin": 6183,
      "controlled": 6184,
      "immigrated": 6185,
      "covers": 6186,
      "admires": 6187,
      "promised": 6188,
      "Readers": 6189,
      "effecting": 6190,
      "????????": 6191,
      "brick": 6192,
      "deffin": 6193,
      "rocky": 6194,
      "controversy": 6195,
      "evidence": 6196,
      "scientists": 6197,
      "accepting": 6198,
      "touched": 6199,
      "intelligent": 6200,
      "devastating": 6201,
      "sarcas": 6202,
      "attach": 6203,
      "involves": 6204,
      "circumstances": 6205,
      "automatically": 6206,
      "heavily": 6207,
      "55": 6208,
      "Either": 6209,
      "NG": 6210,
      "Too": 6211,
      "Wil": 6212,
      "ahold": 6213,
      "ito": 6214,
      "iers": 6215,
      "kurmaskie": 6216,
      "mut": 6217,
      "tunity": 6218,
      "uff": 6219,
      "zone": 6220,
      "ths": 6221,
      "thy": 6222,
      "inating": 6223,
      "theses": 6224,
      "enh": 6225,
      "envelop": 6226,
      "lean": 6227,
      "lege": 6228,
      "asp": 6229,
      "alow": 6230,
      "stair": 6231,
      "chip": 6232,
      "liking": 6233,
      "oting": 6234,
      "rie": 6235,
      "peop": 6236,
      "abor": 6237,
      "unknown": 6238,
      "exclaimed": 6239,
      "improving": 6240,
      "plat": 6241,
      "ulting": 6242,
      "apped": 6243,
      "urally": 6244,
      "werent": 6245,
      "cloud": 6246,
      "stone": 6247,
      "CAPS26": 6248,
      "tryed": 6249,
      "assist": 6250,
      "thanking": 6251,
      "deri": 6252,
      "sucked": 6253,
      "tested": 6254,
      "disast": 6255,
      "license": 6256,
      "suppor": 6257,
      "sentences": 6258,
      "possibilities": 6259,
      "leges": 6260,
      "mailing": 6261,
      "questioned": 6262,
      "raining": 6263,
      "pretend": 6264,
      "dehydrate": 6265,
      "limiting": 6266,
      "slowed": 6267,
      "finaly": 6268,
      "successfully": 6269,
      "pait": 6270,
      "evil": 6271,
      "businesses": 6272,
      "sorrow": 6273,
      "levels": 6274,
      "melting": 6275,
      "development": 6276,
      "restrict": 6277,
      "captain": 6278,
      "rusted": 6279,
      "mixed": 6280,
      "bonds": 6281,
      "convince": 6282,
      "magizine": 6283,
      "puzz": 6284,
      "updates": 6285,
      "corrup": 6286,
      "settled": 6287,
      "lifted": 6288,
      "lamest": 6289,
      "cheeks": 6290,
      "reluctantly": 6291,
      "simpler": 6292,
      "Honestly": 6293,
      "specifically": 6294,
      "Experts": 6295,
      "Wilber": 6296,
      "EED": 6297,
      "Fac": 6298,
      "Happ": 6299,
      "Res": 6300,
      "Same": 6301,
      "Wa": 6302,
      "ais": 6303,
      "bite": 6304,
      "ell": 6305,
      "ht": 6306,
      "hates": 6307,
      "jam": 6308,
      "lu": 6309,
      "mater": 6310,
      "mum": 6311,
      "packing": 6312,
      "sights": 6313,
      "uries": 6314,
      "reconnect": 6315,
      "encycl": 6316,
      "itly": 6317,
      "arose": 6318,
      "hav": 6319,
      "forts": 6320,
      "forbid": 6321,
      "ama": 6322,
      "cember": 6323,
      "tem": 6324,
      "logy": 6325,
      "granted": 6326,
      "dia": 6327,
      "dig": 6328,
      "fright": 6329,
      "spare": 6330,
      "needing": 6331,
      "beings": 6332,
      "stub": 6333,
      "drain": 6334,
      "cored": 6335,
      "gency": 6336,
      "mins": 6337,
      "disease": 6338,
      "discouraged": 6339,
      "begun": 6340,
      "cru": 6341,
      "crashed": 6342,
      "medical": 6343,
      "bench": 6344,
      "mankind": 6345,
      "farther": 6346,
      "classmates": 6347,
      "awful": 6348,
      "confines": 6349,
      "sucking": 6350,
      "bitter": 6351,
      "troubled": 6352,
      "installed": 6353,
      "fallen": 6354,
      "dollar": 6355,
      "shaped": 6356,
      "shaky": 6357,
      "telephone": 6358,
      "slipped": 6359,
      "bully": 6360,
      "deeper": 6361,
      "flip": 6362,
      "slaves": 6363,
      "knocked": 6364,
      "annoyed": 6365,
      "consult": 6366,
      "pacient": 6367,
      "persuade": 6368,
      "incredibly": 6369,
      "complications": 6370,
      "convinced": 6371,
      "BOOKS": 6372,
      "becaus": 6373,
      "Despite": 6374,
      "sneak": 6375,
      "uncontrollably": 6376,
      "temporarily": 6377,
      "Typing": 6378,
      "skeleton": 6379,
      "encyclop": 6380,
      "LY": 6381,
      "Pr": 6382,
      "Vi": 6383,
      "WI": 6384,
      "bay": 6385,
      "dition": 6386,
      "fab": 6387,
      "honey": 6388,
      "nig": 6389,
      "ocean": 6390,
      "poo": 6391,
      "pil": 6392,
      "wore": 6393,
      "wrest": 6394,
      "york": 6395,
      "rey": 6396,
      "rein": 6397,
      "recomm": 6398,
      "ato": 6399,
      "aside": 6400,
      "sec": 6401,
      "sel": 6402,
      "stac": 6403,
      "uter": 6404,
      "peole": 6405,
      "puter": 6406,
      "rocket": 6407,
      "unstable": 6408,
      "expose": 6409,
      "conta": 6410,
      "buck": 6411,
      "blew": 6412,
      "worries": 6413,
      "butter": 6414,
      "grace": 6415,
      "sake": 6416,
      "brush": 6417,
      "noone": 6418,
      "CAPS28": 6419,
      "posi": 6420,
      "helpfull": 6421,
      "overcame": 6422,
      "english": 6423,
      "calmed": 6424,
      "chem": 6425,
      "listed": 6426,
      "singer": 6427,
      "exerc": 6428,
      "lands": 6429,
      "freak": 6430,
      "checks": 6431,
      "nav": 6432,
      "humid": 6433,
      "shifted": 6434,
      "connections": 6435,
      "beside": 6436,
      "pays": 6437,
      "falls": 6438,
      "reminder": 6439,
      "loading": 6440,
      "summary": 6441,
      "appeared": 6442,
      "catag": 6443,
      "americans": 6444,
      "punished": 6445,
      "cured": 6446,
      "fortunate": 6447,
      "select": 6448,
      "cracked": 6449,
      "swinging": 6450,
      "libray": 6451,
      "politics": 6452,
      "December": 6453,
      "knees": 6454,
      "mystery": 6455,
      "maneu": 6456,
      "emergency": 6457,
      "battle": 6458,
      "Materials": 6459,
      "elderly": 6460,
      "yahoo": 6461,
      "california": 6462,
      "volleyball": 6463,
      "?!": 6464,
      "Find": 6465,
      "Face": 6466,
      "GE": 6467,
      "Had": 6468,
      "IF": 6469,
      "Wr": 6470,
      "Wind": 6471,
      "avi": 6472,
      "ailed": 6473,
      "fate": 6474,
      "fits": 6475,
      "flaws": 6476,
      "faint": 6477,
      "kills": 6478,
      "kiss": 6479,
      "len": 6480,
      "pig": 6481,
      "rare": 6482,
      "wis": 6483,
      "wach": 6484,
      "inapprop": 6485,
      "iter": 6486,
      "itary": 6487,
      "army": 6488,
      "lians": 6489,
      "otic": 6490,
      "opper": 6491,
      "forgetting": 6492,
      "tip": 6493,
      "irts": 6494,
      "irrit": 6495,
      "shall": 6496,
      "shield": 6497,
      "ify": 6498,
      "exam": 6499,
      "frown": 6500,
      "sales": 6501,
      "depart": 6502,
      "decor": 6503,
      "shoulders": 6504,
      "veness": 6505,
      "ieved": 6506,
      "pper": 6507,
      "parked": 6508,
      "faction": 6509,
      "whose": 6510,
      "bothered": 6511,
      "workout": 6512,
      "Soc": 6513,
      "Social": 6514,
      "assume": 6515,
      "downstairs": 6516,
      "interview": 6517,
      "jog": 6518,
      "laid": 6519,
      "label": 6520,
      "hyper": 6521,
      "creativity": 6522,
      "vivid": 6523,
      "eases": 6524,
      "easiest": 6525,
      "steep": 6526,
      "restroom": 6527,
      "cris": 6528,
      "cram": 6529,
      "guitar": 6530,
      "torn": 6531,
      "babies": 6532,
      "PERCENT4": 6533,
      "coordin": 6534,
      "relized": 6535,
      "excuse": 6536,
      "ruction": 6537,
      "horiz": 6538,
      "wheather": 6539,
      "invite": 6540,
      "denied": 6541,
      "sweating": 6542,
      "host": 6543,
      "holi": 6544,
      "fairly": 6545,
      "watches": 6546,
      "goverment": 6547,
      "brains": 6548,
      "webcams": 6549,
      "tracks": 6550,
      "carrying": 6551,
      "reflect": 6552,
      "deadly": 6553,
      "hazards": 6554,
      "global": 6555,
      "collage": 6556,
      "survived": 6557,
      "observations": 6558,
      "protest": 6559,
      "lord": 6560,
      "overwhelming": 6561,
      "opinon": 6562,
      "labeled": 6563,
      "tremendous": 6564,
      "tennis": 6565,
      "Blimps": 6566,
      "exception": 6567,
      "landscape": 6568,
      "winters": 6569,
      "Bas": 6570,
      "High": 6571,
      "Obes": 6572,
      "Set": 6573,
      "WH": 6574,
      "bars": 6575,
      "dens": 6576,
      "dump": 6577,
      "fed": 6578,
      "ix": 6579,
      "ially": 6580,
      "iving": 6581,
      "kis": 6582,
      "nude": 6583,
      "og": 6584,
      "pies": 6585,
      "vable": 6586,
      "wing": 6587,
      "alf": 6588,
      "arti": 6589,
      "arts": 6590,
      "ayed": 6591,
      "meap": 6592,
      "opion": 6593,
      "hab": 6594,
      "ham": 6595,
      "shorts": 6596,
      "withstand": 6597,
      "excl": 6598,
      "exchange": 6599,
      "conserve": 6600,
      "framing": 6601,
      "plot": 6602,
      "brack": 6603,
      "apple": 6604,
      "urs": 6605,
      "herd": 6606,
      "rends": 6607,
      "club": 6608,
      "nod": 6609,
      "parental": 6610,
      "happily": 6611,
      "trag": 6612,
      "preh": 6613,
      "desper": 6614,
      "reduce": 6615,
      "worker": 6616,
      "yellow": 6617,
      "downs": 6618,
      "schoolwork": 6619,
      "cozy": 6620,
      "counting": 6621,
      "dishes": 6622,
      "disrespectful": 6623,
      "listens": 6624,
      "tricks": 6625,
      "crush": 6626,
      "movement": 6627,
      "surger": 6628,
      "Doing": 6629,
      "pops": 6630,
      "borhood": 6631,
      "corpor": 6632,
      "couraging": 6633,
      "experiencing": 6634,
      "complex": 6635,
      "hydrated": 6636,
      "fastest": 6637,
      "viruses": 6638,
      "insight": 6639,
      "signed": 6640,
      "ocking": 6641,
      "complaints": 6642,
      "rising": 6643,
      "deny": 6644,
      "amazed": 6645,
      "breaks": 6646,
      "grader": 6647,
      "ashing": 6648,
      "freshman": 6649,
      "tables": 6650,
      "float": 6651,
      "painful": 6652,
      "strengthening": 6653,
      "celebrated": 6654,
      "challenged": 6655,
      "organization": 6656,
      "giggles": 6657,
      "seventh": 6658,
      "civilians": 6659,
      "satisfaction": 6660,
      "slept": 6661,
      "routine": 6662,
      "chooses": 6663,
      "breathing": 6664,
      "effici": 6665,
      "released": 6666,
      "mountains": 6667,
      "complicated": 6668,
      "bearable": 6669,
      "grocery": 6670,
      "babysitter": 6671,
      "Freedom": 6672,
      "pornography": 6673,
      "explosion": 6674,
      "vocabulary": 6675,
      "chicken": 6676,
      "platform": 6677,
      "FE": 6678,
      "FOR": 6679,
      "Good": 6680,
      "Lots": 6681,
      "Pic": 6682,
      "RO": 6683,
      "Ye": 6684,
      "bies": 6685,
      "bla": 6686,
      "cone": 6687,
      "dated": 6688,
      "eager": 6689,
      "gross": 6690,
      "hone": 6691,
      "lage": 6692,
      "othe": 6693,
      "pace": 6694,
      "vs": 6695,
      "wating": 6696,
      "woud": 6697,
      "zines": 6698,
      "iso": 6699,
      "omed": 6700,
      "styles": 6701,
      "aying": 6702,
      "meat": 6703,
      "acqu": 6704,
      "fork": 6705,
      "forces": 6706,
      "peice": 6707,
      "shore": 6708,
      "shocking": 6709,
      "allways": 6710,
      "goof": 6711,
      "logged": 6712,
      "offes": 6713,
      "themself": 6714,
      "ensure": 6715,
      "TING": 6716,
      "probly": 6717,
      "illumin": 6718,
      "interactions": 6719,
      "THER": 6720,
      "hardship": 6721,
      "calcul": 6722,
      "minue": 6723,
      "hopped": 6724,
      "minded": 6725,
      "serving": 6726,
      "Allowing": 6727,
      "positively": 6728,
      "surfing": 6729,
      "techni": 6730,
      "borrow": 6731,
      "iously": 6732,
      "grandfather": 6733,
      "deciding": 6734,
      "relize": 6735,
      "version": 6736,
      "directed": 6737,
      "colleges": 6738,
      "cooked": 6739,
      "horse": 6740,
      "graders": 6741,
      "supported": 6742,
      "voices": 6743,
      "MONEY2": 6744,
      "evol": 6745,
      "collection": 6746,
      "shoe": 6747,
      "persist": 6748,
      "pumped": 6749,
      "figuring": 6750,
      "increases": 6751,
      "slid": 6752,
      "luckily": 6753,
      "produce": 6754,
      "drawn": 6755,
      "surprising": 6756,
      "greenhouse": 6757,
      "testing": 6758,
      "training": 6759,
      "thrive": 6760,
      "colorful": 6761,
      "crashing": 6762,
      "distraction": 6763,
      "Teen": 6764,
      "bowl": 6765,
      "swaying": 6766,
      "gangs": 6767,
      "disappear": 6768,
      "settle": 6769,
      "emphasize": 6770,
      "firmly": 6771,
      "prevailed": 6772,
      "susp": 6773,
      "eliminate": 6774,
      "ironic": 6775,
      "OME": 6776,
      "apologized": 6777,
      "immense": 6778,
      "predators": 6779,
      "software": 6780,
      "Perhaps": 6781,
      "Reason": 6782,
      "detailed": 6783,
      "Viol": 6784,
      "contagious": 6785,
      "Society": 6786,
      "Basically": 6787,
      "Obesity": 6788,
      ",\"@": 6789,
      "56": 6790,
      "AC": 6791,
      "BU": 6792,
      "Bet": 6793,
      "Dont": 6794,
      "MO": 6795,
      "SH": 6796,
      "Tr": 6797,
      "aven": 6798,
      "bare": 6799,
      "bac": 6800,
      "clicking": 6801,
      "dge": 6802,
      "fare": 6803,
      "fol": 6804,
      "gur": 6805,
      "jac": 6806,
      "naly": 6807,
      "pap": 6808,
      "sang": 6809,
      "treas": 6810,
      "xbox": 6811,
      "inch": 6812,
      "thetic": 6813,
      "release": 6814,
      "tonight": 6815,
      "orship": 6816,
      "hesit": 6817,
      "alarm": 6818,
      "sevent": 6819,
      "ute": 6820,
      "acc": 6821,
      "verry": 6822,
      "pected": 6823,
      "fered": 6824,
      "nei": 6825,
      "thern": 6826,
      "amend": 6827,
      "robot": 6828,
      "unacceptable": 6829,
      "tee": 6830,
      "grave": 6831,
      "stolen": 6832,
      "CAPS25": 6833,
      "posure": 6834,
      "pocket": 6835,
      "boom": 6836,
      "arted": 6837,
      "backs": 6838,
      "atures": 6839,
      "tops": 6840,
      "blems": 6841,
      "costu": 6842,
      "scrap": 6843,
      "tripped": 6844,
      "kinder": 6845,
      "lawn": 6846,
      "crude": 6847,
      "crimes": 6848,
      "freind": 6849,
      "freaking": 6850,
      "simul": 6851,
      "court": 6852,
      "choir": 6853,
      "athle": 6854,
      "returns": 6855,
      "destruction": 6856,
      "traveled": 6857,
      "benefiting": 6858,
      "larger": 6859,
      "halfway": 6860,
      "definatly": 6861,
      "swept": 6862,
      "grading": 6863,
      "speeds": 6864,
      "burger": 6865,
      "notices": 6866,
      "warn": 6867,
      "designers": 6868,
      "fixing": 6869,
      "192": 6870,
      "1956": 6871,
      "governor": 6872,
      "moderation": 6873,
      "snap": 6874,
      "damaging": 6875,
      "protected": 6876,
      "cope": 6877,
      "climbed": 6878,
      "drawing": 6879,
      "arguement": 6880,
      "currently": 6881,
      "qualities": 6882,
      "conflicts": 6883,
      "relieve": 6884,
      "ethnic": 6885,
      "temperatures": 6886,
      "contributed": 6887,
      "combined": 6888,
      "caution": 6889,
      "percentage": 6890,
      "agian": 6891,
      "throat": 6892,
      "Hopefully": 6893,
      "stumbled": 6894,
      "employe": 6895,
      "structural": 6896,
      "excessive": 6897,
      "industry": 6898,
      "bridge": 6899,
      "eggs": 6900,
      "sleepover": 6901,
      "length": 6902,
      "Statistics": 6903,
      "Factory": 6904,
      "chemical": 6905,
      "brackish": 6906,
      "\"(": 6907,
      "EX": 6908,
      "Half": 6909,
      "Mom": 6910,
      "Spr": 6911,
      "Vide": 6912,
      "Wide": 6913,
      "core": 6914,
      "dust": 6915,
      "evey": 6916,
      "gic": 6917,
      "hus": 6918,
      "hits": 6919,
      "harr": 6920,
      "juni": 6921,
      "nd": 6922,
      "nit": 6923,
      "ras": 6924,
      "tro": 6925,
      "tack": 6926,
      "uer": 6927,
      "yal": 6928,
      "indoors": 6929,
      "rer": 6930,
      "oug": 6931,
      "erable": 6932,
      "ony": 6933,
      "leaf": 6934,
      "lemon": 6935,
      "chain": 6936,
      "chol": 6937,
      "lips": 6938,
      "oozed": 6939,
      "auth": 6940,
      "rious": 6941,
      "aces": 6942,
      "wile": 6943,
      "moon": 6944,
      "pered": 6945,
      "irable": 6946,
      "icing": 6947,
      "unjust": 6948,
      "unpatient": 6949,
      "unbearable": 6950,
      "bulling": 6951,
      "buiss": 6952,
      "rental": 6953,
      "builds": 6954,
      "divid": 6955,
      "diverse": 6956,
      "produced": 6957,
      "goodbye": 6958,
      "gotta": 6959,
      "backyard": 6960,
      "efforts": 6961,
      "graphs": 6962,
      "drives": 6963,
      "disap": 6964,
      "rested": 6965,
      "ishing": 6966,
      "matt": 6967,
      "surface": 6968,
      "resons": 6969,
      "nerves": 6970,
      "memorable": 6971,
      "situated": 6972,
      "distances": 6973,
      "languages": 6974,
      "succes": 6975,
      "occured": 6976,
      "concerning": 6977,
      "textbooks": 6978,
      "DATE4": 6979,
      "accidentally": 6980,
      "presentation": 6981,
      "driveway": 6982,
      "cliff": 6983,
      "respected": 6984,
      "admired": 6985,
      "transfer": 6986,
      "influences": 6987,
      "vacations": 6988,
      "cellphones": 6989,
      "switch": 6990,
      "nonfiction": 6991,
      "developing": 6992,
      "postp": 6993,
      "Moreover": 6994,
      "excersising": 6995,
      "circle": 6996,
      "Famili": 6997,
      "graced": 6998,
      "reflexes": 6999,
      "brilli": 7000,
      "labor": 7001,
      "discussed": 7002,
      "tours": 7003,
      "distract": 7004,
      "puppies": 7005,
      "critical": 7006,
      "gratefullness": 7007,
      "application": 7008,
      "applications": 7009,
      "enviornment": 7010,
      "zeppelin": 7011,
      "Putting": 7012,
      "Trying": 7013,
      "kidnapped": 7014,
      "convien": 7015,
      "nurse": 7016,
      "introduce": 7017,
      "ultimately": 7018,
      "prohibiting": 7019,
      "cencorship": 7020,
      "optimistic": 7021,
      "Teachers": 7022,
      "sarcastic": 7023,
      "Setting": 7024,
      "tragic": 7025,
      "illuminated": 7026,
      "<@": 7027,
      "ARE": 7028,
      "DR": 7029,
      "IR": 7030,
      "LL": 7031,
      "USE": 7032,
      "WAS": 7033,
      "cart": 7034,
      "dare": 7035,
      "ey": 7036,
      "ium": 7037,
      "jus": 7038,
      "mate": 7039,
      "pg": 7040,
      "punch": 7041,
      "roo": 7042,
      "scan": 7043,
      "uh": 7044,
      "uding": 7045,
      "xim": 7046,
      "zi": 7047,
      "thru": 7048,
      "inappor": 7049,
      "reme": 7050,
      "reun": 7051,
      "recall": 7052,
      "erd": 7053,
      "enable": 7054,
      "lect": 7055,
      "hew": 7056,
      "asse": 7057,
      "asts": 7058,
      "associ": 7059,
      "album": 7060,
      "sea": 7061,
      "stic": 7062,
      "lil": 7063,
      "meta": 7064,
      "whent": 7065,
      "otive": 7066,
      "opens": 7067,
      "actor": 7068,
      "compreh": 7069,
      "hap": 7070,
      "modest": 7071,
      "peer": 7072,
      "tiring": 7073,
      "shook": 7074,
      "puters": 7075,
      "dosent": 7076,
      "rose": 7077,
      "unsure": 7078,
      "unnecessary": 7079,
      "unfortunately": 7080,
      "cement": 7081,
      "tax": 7082,
      "imformation": 7083,
      "tec": 7084,
      "ulate": 7085,
      "offen": 7086,
      "official": 7087,
      "depic": 7088,
      "NUM9": 7089,
      "ideals": 7090,
      "observe": 7091,
      "observed": 7092,
      "overt": 7093,
      "makeing": 7094,
      "CAPS31": 7095,
      "desirable": 7096,
      "illust": 7097,
      "episo": 7098,
      "placing": 7099,
      "olds": 7100,
      "oldest": 7101,
      "interactive": 7102,
      "schoolers": 7103,
      "displays": 7104,
      "network": 7105,
      "blank": 7106,
      "wonders": 7107,
      "dangle": 7108,
      "understands": 7109,
      "techn": 7110,
      "hurried": 7111,
      "possess": 7112,
      "hears": 7113,
      "cencored": 7114,
      "intel": 7115,
      "monster": 7116,
      "buddies": 7117,
      "boyfriends": 7118,
      "excercising": 7119,
      "screens": 7120,
      "fired": 7121,
      "racing": 7122,
      "insane": 7123,
      "imagined": 7124,
      "valid": 7125,
      "fathers": 7126,
      "inctive": 7127,
      "meaningful": 7128,
      "travels": 7129,
      "military": 7130,
      "acceptance": 7131,
      "appeal": 7132,
      "appealing": 7133,
      "cells": 7134,
      "involving": 7135,
      "sweaty": 7136,
      "sheltered": 7137,
      "naturally": 7138,
      "bumps": 7139,
      "softball": 7140,
      "spoken": 7141,
      "billion": 7142,
      "soldiers": 7143,
      "statistics": 7144,
      "portrays": 7145,
      "dependent": 7146,
      "motivated": 7147,
      "suffering": 7148,
      "econom": 7149,
      "contribute": 7150,
      "gifts": 7151,
      "OFF": 7152,
      "virtually": 7153,
      "Obstac": 7154,
      "fingertips": 7155,
      "reveals": 7156,
      "chuckled": 7157,
      "injured": 7158,
      "neccess": 7159,
      "deliver": 7160,
      "evident": 7161,
      "Schools": 7162,
      "adoles": 7163,
      "regarding": 7164,
      "responded": 7165,
      "gentlemen": 7166,
      "revolution": 7167,
      "intention": 7168,
      "cabin": 7169,
      "comparing": 7170,
      "blanket": 7171,
      "unexpected": 7172,
      "married": 7173,
      "magnific": 7174,
      "pencil": 7175,
      "supporting": 7176,
      "Waiting": 7177,
      "stubborn": 7178,
      "Facebook": 7179,
      "surgery": 7180,
      "husband": 7181,
      "Isn": 7182,
      "Will": 7183,
      "aqu": 7184,
      "bend": 7185,
      "cree": 7186,
      "dd": 7187,
      "fuel": 7188,
      "hers": 7189,
      "iN": 7190,
      "mal": 7191,
      "nut": 7192,
      "ral": 7193,
      "sue": 7194,
      "simp": 7195,
      "smel": 7196,
      "zes": 7197,
      "‘’": 7198,
      "thick": 7199,
      "rebirth": 7200,
      "revo": 7201,
      "enthus": 7202,
      "encouraged": 7203,
      "orders": 7204,
      "behave": 7205,
      "arting": 7206,
      "stion": 7207,
      "stur": 7208,
      "stung": 7209,
      "ada": 7210,
      "uters": 7211,
      "wast": 7212,
      "otion": 7213,
      "accounts": 7214,
      "iding": 7215,
      "shirts": 7216,
      "neck": 7217,
      "iced": 7218,
      "const": 7219,
      "tape": 7220,
      "bug": 7221,
      "fron": 7222,
      "pla": 7223,
      "plastic": 7224,
      "offic": 7225,
      "grasp": 7226,
      "delight": 7227,
      "themselfs": 7228,
      "probal": 7229,
      "authority": 7230,
      "ipes": 7231,
      "newest": 7232,
      "fullest": 7233,
      "wherever": 7234,
      "quest": 7235,
      "studied": 7236,
      "suited": 7237,
      "sums": 7238,
      "coaches": 7239,
      "pertain": 7240,
      "scoo": 7241,
      "dish": 7242,
      "informational": 7243,
      "flame": 7244,
      "crap": 7245,
      "cruc": 7246,
      "ignoring": 7247,
      "agreement": 7248,
      "Everytime": 7249,
      "countrys": 7250,
      "ENS": 7251,
      "deserved": 7252,
      "ugly": 7253,
      "balls": 7254,
      "athy": 7255,
      "monkey": 7256,
      "monito": 7257,
      "buddy": 7258,
      "eyesight": 7259,
      "distribut": 7260,
      "enternet": 7261,
      "embr": 7262,
      "sadly": 7263,
      "expressions": 7264,
      "Unlike": 7265,
      "ruins": 7266,
      "connects": 7267,
      "cookies": 7268,
      "sunlight": 7269,
      "generous": 7270,
      "glue": 7271,
      "glanced": 7272,
      "addictive": 7273,
      "Library": 7274,
      "personaly": 7275,
      "textbook": 7276,
      "vowing": 7277,
      "harmless": 7278,
      "gradu": 7279,
      "potato": 7280,
      "appreciated": 7281,
      "cellphone": 7282,
      "abandon": 7283,
      "additional": 7284,
      "wishing": 7285,
      "dict": 7286,
      "trusted": 7287,
      "ladies": 7288,
      "fatal": 7289,
      "narration": 7290,
      "avoided": 7291,
      "sticks": 7292,
      "wisely": 7293,
      "flies": 7294,
      "aroma": 7295,
      "reflects": 7296,
      "claims": 7297,
      "curiosity": 7298,
      "skinny": 7299,
      "fantasy": 7300,
      "shouting": 7301,
      "records": 7302,
      "hazardous": 7303,
      "chuckle": 7304,
      "eighth": 7305,
      "scientist": 7306,
      "socially": 7307,
      "posotive": 7308,
      "prevents": 7309,
      "smoking": 7310,
      "zeppelins": 7311,
      "sophom": 7312,
      "Okay": 7313,
      "advertisements": 7314,
      "shorter": 7315,
      "fasc": 7316,
      "obsessed": 7317,
      "bicycle": 7318,
      "reminis": 7319,
      "spanish": 7320,
      "microsoft": 7321,
      "Sitting": 7322,
      "derigibles": 7323,
      "horizon": 7324,
      "nodded": 7325,
      "Spring": 7326,
      "Video": 7327,
      "brilliant": 7328,
      "crucial": 7329,
      "Am": 7330,
      "Cen": 7331,
      "IVE": 7332,
      "None": 7333,
      "Pub": 7334,
      "Rather": 7335,
      "SO": 7336,
      "Six": 7337,
      "WE": 7338,
      "Work": 7339,
      "bble": 7340,
      "bones": 7341,
      "drew": 7342,
      "fills": 7343,
      "gum": 7344,
      "hugged": 7345,
      "iP": 7346,
      "lately": 7347,
      "mans": 7348,
      "nick": 7349,
      "phew": 7350,
      "rot": 7351,
      "tre": 7352,
      "uage": 7353,
      "wre": 7354,
      "wate": 7355,
      "wound": 7356,
      "wated": 7357,
      "xy": 7358,
      "yu": 7359,
      "zen": 7360,
      "thed": 7361,
      "theater": 7362,
      "recess": 7363,
      "removes": 7364,
      "references": 7365,
      "heck": 7366,
      "alter": 7367,
      "altogether": 7368,
      "oppur": 7369,
      "pets": 7370,
      "nephew": 7371,
      "absor": 7372,
      "amused": 7373,
      "icly": 7374,
      "roar": 7375,
      "unsuccessful": 7376,
      "unconstitutional": 7377,
      "exs": 7378,
      "upbeat": 7379,
      "loyal": 7380,
      "gray": 7381,
      "grump": 7382,
      "brake": 7383,
      "deem": 7384,
      "eling": 7385,
      "obli": 7386,
      "acked": 7387,
      "owns": 7388,
      "happiest": 7389,
      "homeless": 7390,
      "CAPS34": 7391,
      "CAPS35": 7392,
      "tooken": 7393,
      "rediculous": 7394,
      "illing": 7395,
      "THEY": 7396,
      "agin": 7397,
      "sugar": 7398,
      "draf": 7399,
      "socity": 7400,
      "spect": 7401,
      "scor": 7402,
      "disadvantages": 7403,
      "commit": 7404,
      "commonly": 7405,
      "standard": 7406,
      "lasted": 7407,
      "bestfriend": 7408,
      "blueprints": 7409,
      "begging": 7410,
      "serves": 7411,
      "phor": 7412,
      "writen": 7413,
      "miserable": 7414,
      "deserves": 7415,
      "ski": 7416,
      "smal": 7417,
      "flowing": 7418,
      "advise": 7419,
      "Mostly": 7420,
      "buss": 7421,
      "distinctive": 7422,
      "ava": 7423,
      "nicely": 7424,
      "horses": 7425,
      "dealt": 7426,
      "file": 7427,
      "cuts": 7428,
      "cutting": 7429,
      "invest": 7430,
      "definately": 7431,
      "gradually": 7432,
      "swiveling": 7433,
      "noticing": 7434,
      "raising": 7435,
      "humanity": 7436,
      "solutions": 7437,
      "messy": 7438,
      "marvel": 7439,
      "Maria": 7440,
      "treating": 7441,
      "Often": 7442,
      "cats": 7443,
      "meetings": 7444,
      "flights": 7445,
      "Addition": 7446,
      "bothering": 7447,
      "patent": 7448,
      "mirror": 7449,
      "films": 7450,
      "boots": 7451,
      "comunication": 7452,
      "persuaded": 7453,
      "basicly": 7454,
      "thoes": 7455,
      "squir": 7456,
      "effectively": 7457,
      "recognize": 7458,
      "necces": 7459,
      "blasted": 7460,
      "wedding": 7461,
      "phrases": 7462,
      "links": 7463,
      "diamondback": 7464,
      "enviorment": 7465,
      "veiws": 7466,
      "Features": 7467,
      "commercials": 7468,
      "stretch": 7469,
      "categories": 7470,
      "directors": 7471,
      "explanation": 7472,
      "bonding": 7473,
      "obsticals": 7474,
      "chaos": 7475,
      "Teenagers": 7476,
      "!'": 7477,
      "Around": 7478,
      "Carter": 7479,
      "Fr": 7480,
      "HA": 7481,
      "Hum": 7482,
      "ID": 7483,
      "MIT": 7484,
      "Show": 7485,
      "Str": 7486,
      "Sever": 7487,
      "SHE": 7488,
      "Tow": 7489,
      "Tur": 7490,
      "bis": 7491,
      "bone": 7492,
      "cers": 7493,
      "dur": 7494,
      "fes": 7495,
      "flaw": 7496,
      "gently": 7497,
      "lan": 7498,
      "lined": 7499,
      "mist": 7500,
      "mill": 7501,
      "mama": 7502,
      "narciso": 7503,
      "pad": 7504,
      "rance": 7505,
      "swee": 7506,
      "tunities": 7507,
      "vice": 7508,
      "wishes": 7509,
      "zoo": 7510,
      "….": 7511,
      "thim": 7512,
      "infer": 7513,
      "reference": 7514,
      "tock": 7515,
      "tossed": 7516,
      "ands": 7517,
      "anding": 7518,
      "bee": 7519,
      "seed": 7520,
      "stre": 7521,
      "stab": 7522,
      "stations": 7523,
      "chin": 7524,
      "arest": 7525,
      "wea": 7526,
      "opposed": 7527,
      "hamed": 7528,
      "outrage": 7529,
      "llo": 7530,
      "ams": 7531,
      "compute": 7532,
      "sheet": 7533,
      "goals": 7534,
      "excel": 7535,
      "consc": 7536,
      "imi": 7537,
      "improves": 7538,
      "bush": 7539,
      "busted": 7540,
      "tea": 7541,
      "teem": 7542,
      "offence": 7543,
      "appri": 7544,
      "dians": 7545,
      "noises": 7546,
      "nostal": 7547,
      "CAPS29": 7548,
      "ideal": 7549,
      "parentheses": 7550,
      "overlooked": 7551,
      "tooth": 7552,
      "prepar": 7553,
      "yea": 7554,
      "assed": 7555,
      "pra": 7556,
      "interrup": 7557,
      "suits": 7558,
      "conclution": 7559,
      "cheered": 7560,
      "drift": 7561,
      "creator": 7562,
      "creatures": 7563,
      "disco": 7564,
      "diseases": 7565,
      "blon": 7566,
      "pressed": 7567,
      "begg": 7568,
      "positives": 7569,
      "daddy": 7570,
      "surro": 7571,
      "techno": 7572,
      "skating": 7573,
      "popped": 7574,
      "chats": 7575,
      "legally": 7576,
      "chosen": 7577,
      "drops": 7578,
      "creep": 7579,
      "easyer": 7580,
      "excercise": 7581,
      "struck": 7582,
      "confusion": 7583,
      "insult": 7584,
      "instances": 7585,
      "grounded": 7586,
      "centuries": 7587,
      "seemingly": 7588,
      "romantic": 7589,
      "barren": 7590,
      "harming": 7591,
      "holes": 7592,
      "prices": 7593,
      "painted": 7594,
      "powerpoint": 7595,
      "evry": 7596,
      "shaking": 7597,
      "calming": 7598,
      "shares": 7599,
      "prompt": 7600,
      "slip": 7601,
      "restricting": 7602,
      "boxes": 7603,
      "periods": 7604,
      "exersice": 7605,
      "giggled": 7606,
      "comforts": 7607,
      "slurs": 7608,
      "OUT": 7609,
      "OUGH": 7610,
      "motion": 7611,
      "activitys": 7612,
      "eighty": 7613,
      "threatening": 7614,
      "hotels": 7615,
      "dramatic": 7616,
      "randomly": 7617,
      "danced": 7618,
      "distractions": 7619,
      "adores": 7620,
      "contributes": 7621,
      "virtue": 7622,
      "belongs": 7623,
      "christ": 7624,
      "1930s": 7625,
      "financial": 7626,
      "technologies": 7627,
      "Keeping": 7628,
      "delicious": 7629,
      "adored": 7630,
      "channel": 7631,
      "victim": 7632,
      "discussion": 7633,
      "horrific": 7634,
      "convenient": 7635,
      "elevation": 7636,
      "instructions": 7637,
      "Exercise": 7638,
      "Exercising": 7639,
      "concentrate": 7640,
      "criminal": 7641,
      "cotton": 7642,
      "slammed": 7643,
      "experiment": 7644,
      "Families": 7645,
      "magnificent": 7646,
      "smelled": 7647,
      "enthusi": 7648,
      "Several": 7649,
      "70": 7650,
      "85": 7651,
      "Cy": 7652,
      "Has": 7653,
      "IC": 7654,
      "Law": 7655,
      "Playing": 7656,
      "SP": 7657,
      "Ser": 7658,
      "Wow": 7659,
      "bang": 7660,
      "bass": 7661,
      "bage": 7662,
      "cens": 7663,
      "dread": 7664,
      "duck": 7665,
      "foun": 7666,
      "fold": 7667,
      "gut": 7668,
      "gers": 7669,
      "gart": 7670,
      "iveness": 7671,
      "kers": 7672,
      "lished": 7673,
      "lacking": 7674,
      "osed": 7675,
      "phas": 7676,
      "rous": 7677,
      "root": 7678,
      "rays": 7679,
      "sin": 7680,
      "sut": 7681,
      "sir": 7682,
      "sends": 7683,
      "slap": 7684,
      "schoo": 7685,
      "uit": 7686,
      "vles": 7687,
      "wings": 7688,
      "ya": 7689,
      "ana": 7690,
      "rear": 7691,
      "retaking": 7692,
      "tong": 7693,
      "tories": 7694,
      "ornament": 7695,
      "esteem": 7696,
      "becase": 7697,
      "veget": 7698,
      "vehic": 7699,
      "adress": 7700,
      "lip": 7701,
      "wii": 7702,
      "wire": 7703,
      "compassion": 7704,
      "peol": 7705,
      "ider": 7706,
      "tiv": 7707,
      "soil": 7708,
      "abs": 7709,
      "aby": 7710,
      "amuse": 7711,
      "iff": 7712,
      "unsolved": 7713,
      "gosh": 7714,
      "exit": 7715,
      "consent": 7716,
      "cet": 7717,
      "immature": 7718,
      "teased": 7719,
      "indic": 7720,
      "brut": 7721,
      "braving": 7722,
      "apon": 7723,
      "deck": 7724,
      "dehid": 7725,
      "cling": 7726,
      "diet": 7727,
      "sper": 7728,
      "ples": 7729,
      "Whatever": 7730,
      "tram": 7731,
      "trade": 7732,
      "backwards": 7733,
      "prit": 7734,
      "enger": 7735,
      "Always": 7736,
      "worldwide": 7737,
      "intern": 7738,
      "interpret": 7739,
      "rented": 7740,
      "waits": 7741,
      "memoirs": 7742,
      "chess": 7743,
      "cheaper": 7744,
      "creats": 7745,
      "relating": 7746,
      "thoughtful": 7747,
      "berry": 7748,
      "blink": 7749,
      "cied": 7750,
      "lively": 7751,
      "Doc": 7752,
      "closely": 7753,
      "portable": 7754,
      "starving": 7755,
      "entering": 7756,
      "dropping": 7757,
      "magic": 7758,
      "magical": 7759,
      "northern": 7760,
      "modifying": 7761,
      "blocking": 7762,
      "complains": 7763,
      "weekends": 7764,
      "attit": 7765,
      "swearing": 7766,
      "refers": 7767,
      "flock": 7768,
      "summers": 7769,
      "covering": 7770,
      "1970": 7771,
      "reported": 7772,
      "customer": 7773,
      "impacted": 7774,
      "filling": 7775,
      "basement": 7776,
      "protection": 7777,
      "protecting": 7778,
      "providing": 7779,
      "bands": 7780,
      "comedian": 7781,
      "senior": 7782,
      "flipped": 7783,
      "particularly": 7784,
      "Meaning": 7785,
      "property": 7786,
      "expectations": 7787,
      "constructors": 7788,
      "gloomy": 7789,
      "tarlike": 7790,
      "surveyed": 7791,
      "demonstrates": 7792,
      "progressed": 7793,
      "cautions": 7794,
      "regardless": 7795,
      "Problems": 7796,
      "knee": 7797,
      "consisted": 7798,
      "American": 7799,
      "adopt": 7800,
      "recipe": 7801,
      "deprive": 7802,
      "criminals": 7803,
      "establish": 7804,
      "proceeded": 7805,
      "cartoon": 7806,
      "cartoons": 7807,
      "professional": 7808,
      "catastrophic": 7809,
      "divorce": 7810,
      "drastically": 7811,
      "squee": 7812,
      "immagrants": 7813,
      "Websites": 7814,
      "perserver": 7815,
      "poisonous": 7816,
      "aviation": 7817,
      "Picture": 7818,
      "minuets": 7819,
      "SHOULD": 7820,
      "junior": 7821,
      "buissness": 7822,
      "divided": 7823,
      "metaphor": 7824,
      "fascinating": 7825,
      "Public": 7826,
      "smallest": 7827,
      "discovery": 7828,
      "blonde": 7829,
      "beggining": 7830,
      "surrogate": 7831,
      "11": 7832,
      "AY": 7833,
      "Col": 7834,
      "Mil": 7835,
      "Norm": 7836,
      "Sim": 7837,
      "Sup": 7838,
      "awake": 7839,
      "cow": 7840,
      "dow": 7841,
      "drigible": 7842,
      "ek": 7843,
      "ets": 7844,
      "ich": 7845,
      "ife": 7846,
      "ju": 7847,
      "nations": 7848,
      "ov": 7849,
      "ored": 7850,
      "pile": 7851,
      "sau": 7852,
      "tought": 7853,
      "inap": 7854,
      "incorpor": 7855,
      "thet": 7856,
      "rep": 7857,
      "reject": 7858,
      "oured": 7859,
      "atically": 7860,
      "atley": 7861,
      "toss": 7862,
      "island": 7863,
      "org": 7864,
      "belt": 7865,
      "CAUSE": 7866,
      "yous": 7867,
      "utter": 7868,
      "wil": 7869,
      "motor": 7870,
      "fears": 7871,
      "female": 7872,
      "neatly": 7873,
      "entry": 7874,
      "alling": 7875,
      "doomed": 7876,
      "ushes": 7877,
      "terror": 7878,
      "unte": 7879,
      "unbelie": 7880,
      "unfamiliar": 7881,
      "exposure": 7882,
      "concep": 7883,
      "tage": 7884,
      "takin": 7885,
      "upcoming": 7886,
      "plen": 7887,
      "hade": 7888,
      "gra": 7889,
      "demo": 7890,
      "delayed": 7891,
      "diversity": 7892,
      "noxious": 7893,
      "spar": 7894,
      "obnoxious": 7895,
      "helpless": 7896,
      "parants": 7897,
      "fulfilled": 7898,
      "hometown": 7899,
      "takeing": 7900,
      "bove": 7901,
      "boards": 7902,
      "kidding": 7903,
      "pron": 7904,
      "tainment": 7905,
      "laz": 7906,
      "cheap": 7907,
      "winding": 7908,
      "earn": 7909,
      "context": 7910,
      "disapo": 7911,
      "flood": 7912,
      "readings": 7913,
      "communities": 7914,
      "meanings": 7915,
      "youngest": 7916,
      "landlord": 7917,
      "classics": 7918,
      "plank": 7919,
      "censore": 7920,
      "bible": 7921,
      "bushes": 7922,
      "awn": 7923,
      "shortly": 7924,
      "crew": 7925,
      "udge": 7926,
      "avali": 7927,
      "portion": 7928,
      "dehydrating": 7929,
      "hinder": 7930,
      "alien": 7931,
      "deals": 7932,
      "sixteen": 7933,
      "ockey": 7934,
      "personalities": 7935,
      "heartwarming": 7936,
      "loads": 7937,
      "History": 7938,
      "teammates": 7939,
      "emailing": 7940,
      "dieing": 7941,
      "cash": 7942,
      "babysitting": 7943,
      "honor": 7944,
      "grabed": 7945,
      "presence": 7946,
      "symbolic": 7947,
      "traits": 7948,
      "individuality": 7949,
      "campground": 7950,
      "restriction": 7951,
      "occurs": 7952,
      "resulted": 7953,
      "meets": 7954,
      "exersizing": 7955,
      "...\".": 7956,
      "climbing": 7957,
      "engineering": 7958,
      "gory": 7959,
      "oppion": 7960,
      "supervision": 7961,
      "Thinking": 7962,
      "frustration": 7963,
      "mount": 7964,
      "thrill": 7965,
      "affection": 7966,
      "rember": 7967,
      "discovering": 7968,
      "smells": 7969,
      "pounding": 7970,
      "beacause": 7971,
      "trailer": 7972,
      "apparently": 7973,
      "conveys": 7974,
      "texts": 7975,
      "slightest": 7976,
      "recognized": 7977,
      "occasions": 7978,
      "anticip": 7979,
      "intellig": 7980,
      "likly": 7981,
      "productive": 7982,
      "necessity": 7983,
      "Quite": 7984,
      "................................................................": 7985,
      "participate": 7986,
      "ctives": 7987,
      "nightmares": 7988,
      "Internet": 7989,
      "diabet": 7990,
      "Writing": 7991,
      "Yeah": 7992,
      "Between": 7993,
      "folks": 7994,
      "kindergart": 7995,
      "postpone": 7996,
      "sturdy": 7997,
      "sophomore": 7998,
      "Additionally": 7999,
      "fountain": 8000,
      "Normally": 8001,
      "App": 8002,
      "Above": 8003,
      "CH": 8004,
      "Dis": 8005,
      "Hel": 8006,
      "Iâ": 8007,
      "ROUGH": 8008,
      "Sur": 8009,
      "Use": 8010,
      "Wor": 8011,
      "bothers": 8012,
      "dling": 8013,
      "fow": 8014,
      "fier": 8015,
      "hockey": 8016,
      "iation": 8017,
      "jar": 8018,
      "lame": 8019,
      "lane": 8020,
      "nuts": 8021,
      "rack": 8022,
      "rors": 8023,
      "sensor": 8024,
      "tends": 8025,
      "vant": 8026,
      "wro": 8027,
      "wold": 8028,
      "zzy": 8029,
      "reser": 8030,
      "eral": 8031,
      "ister": 8032,
      "lem": 8033,
      "heights": 8034,
      "ashes": 8035,
      "ashamed": 8036,
      "ests": 8037,
      "arise": 8038,
      "stares": 8039,
      "liar": 8040,
      "weal": 8041,
      "opo": 8042,
      "ripped": 8043,
      "peak": 8044,
      "outgoing": 8045,
      "fee": 8046,
      "felling": 8047,
      "iring": 8048,
      "solo": 8049,
      "soaked": 8050,
      "nels": 8051,
      "nearest": 8052,
      "abun": 8053,
      "amusing": 8054,
      "usive": 8055,
      "ONE": 8056,
      "ifting": 8057,
      "endent": 8058,
      "unusual": 8059,
      "shevles": 8060,
      "exe": 8061,
      "concid": 8062,
      "consis": 8063,
      "applied": 8064,
      "applies": 8065,
      "del": 8066,
      "dele": 8067,
      "deff": 8068,
      "ctually": 8069,
      "areness": 8070,
      "proof": 8071,
      "proble": 8072,
      "overhead": 8073,
      "talent": 8074,
      "ativ": 8075,
      "desired": 8076,
      "quiz": 8077,
      "waves": 8078,
      "international": 8079,
      "agan": 8080,
      "everthing": 8081,
      "sucess": 8082,
      "lowered": 8083,
      "former": 8084,
      "straw": 8085,
      "permit": 8086,
      "lessly": 8087,
      "sci": 8088,
      "disrespect": 8089,
      "stealing": 8090,
      "flour": 8091,
      "restur": 8092,
      "tense": 8093,
      "singers": 8094,
      "blur": 8095,
      "craw": 8096,
      "civil": 8097,
      "exerpt": 8098,
      "hottest": 8099,
      "Nowadays": 8100,
      "viewer": 8101,
      "grey": 8102,
      "grandmas": 8103,
      "Unless": 8104,
      "purple": 8105,
      "raced": 8106,
      "odds": 8107,
      "glance": 8108,
      "eats": 8109,
      "beginnings": 8110,
      "shoping": 8111,
      "refuse": 8112,
      "refill": 8113,
      "privac": 8114,
      ".''": 8115,
      "Patients": 8116,
      "incip": 8117,
      "painting": 8118,
      "summar": 8119,
      "calmly": 8120,
      "devil": 8121,
      "guessing": 8122,
      "Shifting": 8123,
      "slipp": 8124,
      "sliding": 8125,
      "trait": 8126,
      "mouths": 8127,
      "develope": 8128,
      "locations": 8129,
      "treats": 8130,
      "innaprop": 8131,
      "equipped": 8132,
      "strive": 8133,
      "circul": 8134,
      "bursting": 8135,
      "faul": 8136,
      "Lead": 8137,
      "selected": 8138,
      "poorly": 8139,
      "mirages": 8140,
      "remote": 8141,
      "remains": 8142,
      "satisfy": 8143,
      "lieve": 8144,
      "weaker": 8145,
      "trails": 8146,
      "LIMIT": 8147,
      "sequently": 8148,
      "symbolism": 8149,
      "advertising": 8150,
      "inspiring": 8151,
      "critic": 8152,
      "cherish": 8153,
      "wheeler": 8154,
      "political": 8155,
      "operations": 8156,
      "spinning": 8157,
      "competitive": 8158,
      "kicking": 8159,
      "dissapointed": 8160,
      "punctured": 8161,
      "snacks": 8162,
      "America": 8163,
      "www": 8164,
      "contrary": 8165,
      "producers": 8166,
      "idiot": 8167,
      "polite": 8168,
      "nightmare": 8169,
      "installation": 8170,
      "dimin": 8171,
      "comptuer": 8172,
      "residents": 8173,
      "arrangement": 8174,
      "disgusting": 8175,
      "enhance": 8176,
      "envelopes": 8177,
      "disasters": 8178,
      "posible": 8179,
      "crisis": 8180,
      "efficiently": 8181,
      "ROAD": 8182,
      "techniques": 8183,
      "Violent": 8184,
      "employees": 8185,
      "authour": 8186,
      "sticking": 8187,
      "depicts": 8188,
      "probaly": 8189,
      "monitored": 8190,
      "grumpy": 8191,
      "marvelous": 8192,
      "Towards": 8193,
      "attitudes": 8194,
      "intelligence": 8195,
      "privacy": 8196,
      "!)": 8197,
      "!,": 8198,
      "'...": 8199,
      "''.": 8200,
      "Bad": 8201,
      "Come": 8202,
      "Cause": 8203,
      "Games": 8204,
      "Google": 8205,
      "HO": 8206,
      "HER": 8207,
      "Iron": 8208,
      "ME": 8209,
      "Ry": 8210,
      "Spe": 8211,
      "Simply": 8212,
      "afri": 8213,
      "bby": 8214,
      "fans": 8215,
      "gable": 8216,
      "hint": 8217,
      "ieness": 8218,
      "lers": 8219,
      "lasting": 8220,
      "mu": 8221,
      "ratt": 8222,
      "rail": 8223,
      "san": 8224,
      "sled": 8225,
      "tune": 8226,
      "yer": 8227,
      "yards": 8228,
      "inse": 8229,
      "thesis": 8230,
      "recalls": 8231,
      "remarks": 8232,
      "atin": 8233,
      "attered": 8234,
      "eras": 8235,
      "onent": 8236,
      "orange": 8237,
      "heR": 8238,
      "heath": 8239,
      "itives": 8240,
      "alk": 8241,
      "alous": 8242,
      "escap": 8243,
      "beep": 8244,
      "seren": 8245,
      "secl": 8246,
      "arly": 8247,
      "champ": 8248,
      "meas": 8249,
      "mellow": 8250,
      "merely": 8251,
      "washed": 8252,
      "opped": 8253,
      "acade": 8254,
      "moist": 8255,
      "ided": 8256,
      "tives": 8257,
      "tires": 8258,
      "fere": 8259,
      "neater": 8260,
      "cance": 8261,
      "rob": 8262,
      "unfit": 8263,
      "gore": 8264,
      "conc": 8265,
      "tale": 8266,
      "frist": 8267,
      "indep": 8268,
      "grant": 8269,
      "decent": 8270,
      "decied": 8271,
      "hero": 8272,
      "renting": 8273,
      "stored": 8274,
      "elf": 8275,
      "helmet": 8276,
      "hight": 8277,
      "parks": 8278,
      "inevit": 8279,
      "storys": 8280,
      "patien": 8281,
      "trav": 8282,
      "aching": 8283,
      "workable": 8284,
      "assum": 8285,
      "princip": 8286,
      "musicians": 8287,
      "Helium": 8288,
      "everday": 8289,
      "mester": 8290,
      "implies": 8291,
      "atching": 8292,
      "scri": 8293,
      "scores": 8294,
      "minim": 8295,
      "comming": 8296,
      ".”@": 8297,
      "tempt": 8298,
      "benific": 8299,
      "typeing": 8300,
      "freaked": 8301,
      "resort": 8302,
      "resulting": 8303,
      "corners": 8304,
      "checkout": 8305,
      "factual": 8306,
      "distinct": 8307,
      "negle": 8308,
      "negativ": 8309,
      "versal": 8310,
      "syn": 8311,
      "expi": 8312,
      "expie": 8313,
      "Except": 8314,
      "worthy": 8315,
      "shops": 8316,
      "harmed": 8317,
      "voir": 8318,
      "waters": 8319,
      "immigrant": 8320,
      "MONEY3": 8321,
      "sleepy": 8322,
      "recie": 8323,
      "admire": 8324,
      "boredom": 8325,
      "grabs": 8326,
      "appears": 8327,
      "layer": 8328,
      "garbage": 8329,
      "gantic": 8330,
      "profit": 8331,
      "equally": 8332,
      "cops": 8333,
      "strip": 8334,
      "brighten": 8335,
      "sticker": 8336,
      "sensored": 8337,
      "volunte": 8338,
      "absolutly": 8339,
      "advancements": 8340,
      "knoledge": 8341,
      "stomachs": 8342,
      "thrilled": 8343,
      "defen": 8344,
      "gymn": 8345,
      "labtop": 8346,
      "printed": 8347,
      "tolerate": 8348,
      "dramatically": 8349,
      "billions": 8350,
      "represented": 8351,
      "practiced": 8352,
      "booth": 8353,
      "hospit": 8354,
      "purchased": 8355,
      "exhaustion": 8356,
      "yells": 8357,
      "conveyed": 8358,
      "hugs": 8359,
      "muddy": 8360,
      "hopelessness": 8361,
      "furious": 8362,
      "becouse": 8363,
      "diantion": 8364,
      "descriptions": 8365,
      "cautious": 8366,
      "publishers": 8367,
      "rollercoaster": 8368,
      "guardians": 8369,
      "revealed": 8370,
      "consumer": 8371,
      "priceless": 8372,
      "offensiveness": 8373,
      "hysterical": 8374,
      "dirigables": 8375,
      "accepts": 8376,
      "busting": 8377,
      "rewarded": 8378,
      "soothing": 8379,
      "itarian": 8380,
      "uncontrollable": 8381,
      "twisted": 8382,
      "hobbies": 8383,
      "blankets": 8384,
      "ultimate": 8385,
      "florid": 8386,
      "seperated": 8387,
      "appearance": 8388,
      "occasionally": 8389,
      "bomb": 8390,
      "whispered": 8391,
      "pregnant": 8392,
      "stunt": 8393,
      "dedication": 8394,
      "typical": 8395,
      "princess": 8396,
      "frightened": 8397,
      "encyclopedia": 8398,
      "fabric": 8399,
      "reinforce": 8400,
      "exercize": 8401,
      "catagories": 8402,
      "GET": 8403,
      "irritated": 8404,
      "kissed": 8405,
      "blazing": 8406,
      "jacket": 8407,
      "treasure": 8408,
      "1929": 8409,
      "remeber": 8410,
      "associated": 8411,
      "comprehend": 8412,
      "officials": 8413,
      "oblivious": 8414,
      "imigrants": 8415,
      "vehicle": 8416,
      "brutal": 8417,
      "Millions": 8418,
      "consists": 8419,
      "benificial": 8420,
      ")\"": 8421,
      "46": 8422,
      "?\".": 8423,
      "AB": 8424,
      "Ban": 8425,
      "Creat": 8426,
      "Cons": 8427,
      "Count": 8428,
      "Email": 8429,
      "Four": 8430,
      "Fish": 8431,
      "Gr": 8432,
      "Min": 8433,
      "PO": 8434,
      "Pret": 8435,
      "PLE": 8436,
      "Ste": 8437,
      "Story": 8438,
      "SOME": 8439,
      "Very": 8440,
      "WOULD": 8441,
      "ales": 8442,
      "bind": 8443,
      "cave": 8444,
      "ckets": 8445,
      "dv": 8446,
      "dough": 8447,
      "een": 8448,
      "german": 8449,
      "iable": 8450,
      "itors": 8451,
      "jer": 8452,
      "nach": 8453,
      "psy": 8454,
      "sce": 8455,
      "vamp": 8456,
      "wins": 8457,
      "zer": 8458,
      "zard": 8459,
      "”(": 8460,
      "thumb": 8461,
      "init": 8462,
      "infin": 8463,
      "infl": 8464,
      "ancing": 8465,
      "reate": 8466,
      "replen": 8467,
      "tore": 8468,
      "todd": 8469,
      "leap": 8470,
      "heated": 8471,
      "asive": 8472,
      "oms": 8473,
      "alittle": 8474,
      "editing": 8475,
      "beloved": 8476,
      "seeds": 8477,
      "arnt": 8478,
      "ario": 8479,
      "stability": 8480,
      "youts": 8481,
      "utes": 8482,
      "chill": 8483,
      "liqu": 8484,
      "mere": 8485,
      "whant": 8486,
      "wept": 8487,
      "petal": 8488,
      "ident": 8489,
      "shoul": 8490,
      "puting": 8491,
      "ament": 8492,
      "oneers": 8493,
      "dos": 8494,
      "rod": 8495,
      "unes": 8496,
      "exchanged": 8497,
      "conver": 8498,
      "contest": 8499,
      "immed": 8500,
      "upside": 8501,
      "update": 8502,
      "plug": 8503,
      "ulated": 8504,
      "loses": 8505,
      "appre": 8506,
      "apper": 8507,
      "apreci": 8508,
      "ounce": 8509,
      "detri": 8510,
      "clut": 8511,
      "gigantic": 8512,
      "knowlege": 8513,
      "ilty": 8514,
      "newly": 8515,
      "hassle": 8516,
      "bore": 8517,
      "CAPS33": 8518,
      "achieved": 8519,
      "desires": 8520,
      "Starting": 8521,
      "downfall": 8522,
      "waking": 8523,
      "airplane": 8524,
      "sucks": 8525,
      "formal": 8526,
      "coat": 8527,
      "...”": 8528,
      "Coming": 8529,
      "cheating": 8530,
      "finishes": 8531,
      "docks": 8532,
      "intouch": 8533,
      "informative": 8534,
      "founded": 8535,
      "minors": 8536,
      "yearning": 8537,
      "joyed": 8538,
      "relations": 8539,
      "trigg": 8540,
      "extend": 8541,
      "Moving": 8542,
      "tempted": 8543,
      "ffy": 8544,
      "licence": 8545,
      "communications": 8546,
      "benefited": 8547,
      "courses": 8548,
      "snowing": 8549,
      "foster": 8550,
      "visions": 8551,
      "awsome": 8552,
      "completing": 8553,
      "magzines": 8554,
      "compares": 8555,
      "fires": 8556,
      "extream": 8557,
      "laught": 8558,
      "cookie": 8559,
      "hearted": 8560,
      "slowing": 8561,
      "barn": 8562,
      "speeding": 8563,
      "celebrating": 8564,
      "raped": 8565,
      "costing": 8566,
      "twin": 8567,
      "twins": 8568,
      "modification": 8569,
      "swam": 8570,
      "hunger": 8571,
      "somone": 8572,
      "spotted": 8573,
      "bottling": 8574,
      "custom": 8575,
      "throws": 8576,
      "argued": 8577,
      "locate": 8578,
      "damaged": 8579,
      "radical": 8580,
      "focusing": 8581,
      "popularity": 8582,
      "catches": 8583,
      "judging": 8584,
      "baggage": 8585,
      "bonded": 8586,
      "pleasing": 8587,
      "hauled": 8588,
      "slave": 8589,
      "Adv": 8590,
      "smartest": 8591,
      "trained": 8592,
      "STED": 8593,
      "discussing": 8594,
      "affensive": 8595,
      "existed": 8596,
      "practicing": 8597,
      "separated": 8598,
      "HEAD": 8599,
      "belly": 8600,
      "ALL": 8601,
      "Canada": 8602,
      "guarant": 8603,
      "BECAUSE": 8604,
      "architectural": 8605,
      "grief": 8606,
      "emphasizes": 8607,
      "schedu": 8608,
      "inapropiate": 8609,
      "frequent": 8610,
      "smoke": 8611,
      "suggests": 8612,
      "washing": 8613,
      "agile": 8614,
      "overwhelmed": 8615,
      "****": 8616,
      "niece": 8617,
      "established": 8618,
      "performance": 8619,
      "referring": 8620,
      "browse": 8621,
      "probable": 8622,
      "tropics": 8623,
      "bouncing": 8624,
      "catastrophe": 8625,
      "rumors": 8626,
      "theaters": 8627,
      "isolated": 8628,
      "golden": 8629,
      "tunnel": 8630,
      "witnessed": 8631,
      "renewed": 8632,
      "typically": 8633,
      "barrier": 8634,
      "barriers": 8635,
      "paitent": 8636,
      "aisle": 8637,
      "lux": 8638,
      "consulted": 8639,
      "nigger": 8640,
      "pilot": 8641,
      "recommend": 8642,
      "navy": 8643,
      "maneuver": 8644,
      "oppertunity": 8645,
      "holidays": 8646,
      "suspense": 8647,
      "mattress": 8648,
      "laboratory": 8649,
      "DR1": 8650,
      "assem": 8651,
      "technical": 8652,
      "OFFENS": 8653,
      "neccessary": 8654,
      "revolves": 8655,
      "iPod": 8656,
      "draft": 8657,
      "enthusiastic": 8658,
      "concepts": 8659,
      "diabetes": 8660,
      "principal": 8661,
      "Countless": 8662,
      "OFFENSIVE": 8663,
      "!.": 8664,
      "\"?": 8665,
      "\"[": 8666,
      ",“": 8667,
      "00": 8668,
      "AHEAD": 8669,
      "Big": 8670,
      "Cont": 8671,
      "FR": 8672,
      "Flam": 8673,
      "Gu": 8674,
      "Hun": 8675,
      "Mem": 8676,
      "Rap": 8677,
      "Raw": 8678,
      "Scient": 8679,
      "TA": 8680,
      "Ten": 8681,
      "Trust": 8682,
      "Walking": 8683,
      "ae": 8684,
      "agr": 8685,
      "aga": 8686,
      "bent": 8687,
      "bob": 8688,
      "blim": 8689,
      "cum": 8690,
      "ctic": 8691,
      "ere": 8692,
      "fist": 8693,
      "fue": 8694,
      "gall": 8695,
      "gap": 8696,
      "hose": 8697,
      "lon": 8698,
      "lug": 8699,
      "listing": 8700,
      "mend": 8701,
      "mant": 8702,
      "mens": 8703,
      "oven": 8704,
      "oxy": 8705,
      "pine": 8706,
      "pier": 8707,
      "sou": 8708,
      "sized": 8709,
      "sighed": 8710,
      "tac": 8711,
      "tank": 8712,
      "vaction": 8713,
      "thos": 8714,
      "inpatient": 8715,
      "ancho": 8716,
      "ancient": 8717,
      "review": 8718,
      "respec": 8719,
      "aty": 8720,
      "atched": 8721,
      "toke": 8722,
      "towel": 8723,
      "encouraging": 8724,
      "legible": 8725,
      "aler": 8726,
      "oft": 8727,
      "edited": 8728,
      "bels": 8729,
      "seated": 8730,
      "arse": 8731,
      "vet": 8732,
      "chap": 8733,
      "wears": 8734,
      "oppose": 8735,
      "riad": 8736,
      "rice": 8737,
      "acces": 8738,
      "accent": 8739,
      "comic": 8740,
      "comunity": 8741,
      "comuter": 8742,
      "moive": 8743,
      "outstanding": 8744,
      "shold": 8745,
      "neath": 8746,
      "abused": 8747,
      "entrance": 8748,
      "ict": 8749,
      "uss": 8750,
      "caust": 8751,
      "maga": 8752,
      "unt": 8753,
      "unload": 8754,
      "unsuitable": 8755,
      "gos": 8756,
      "exau": 8757,
      "confront": 8758,
      "contra": 8759,
      "confron": 8760,
      "tap": 8761,
      "buld": 8762,
      "bull": 8763,
      "fragile": 8764,
      "blessed": 8765,
      "plum": 8766,
      "buttons": 8767,
      "loat": 8768,
      "brac": 8769,
      "defe": 8770,
      "defeat": 8771,
      "clist": 8772,
      "cluding": 8773,
      "diary": 8774,
      "dirible": 8775,
      "spreading": 8776,
      "spilled": 8777,
      "poline": 8778,
      "poem": 8779,
      "obs": 8780,
      "obscene": 8781,
      "owning": 8782,
      "overuse": 8783,
      "hier": 8784,
      "afloat": 8785,
      "trap": 8786,
      "traged": 8787,
      "trapped": 8788,
      "cyc": 8789,
      "precautions": 8790,
      "pran": 8791,
      "prank": 8792,
      "quot": 8793,
      "waitress": 8794,
      "ainly": 8795,
      "suceed": 8796,
      "lowers": 8797,
      "waterfall": 8798,
      "gaze": 8799,
      "perm": 8800,
      "foreshad": 8801,
      "ums": 8802,
      "cheering": 8803,
      "cary": 8804,
      "Need": 8805,
      "Neither": 8806,
      "underneath": 8807,
      "opinionated": 8808,
      "jealous": 8809,
      "beging": 8810,
      "crank": 8811,
      "crushed": 8812,
      "ringing": 8813,
      "guest": 8814,
      "guilty": 8815,
      "censorships": 8816,
      "cries": 8817,
      "partners": 8818,
      "careing": 8819,
      "stuffed": 8820,
      "skip": 8821,
      "Believe": 8822,
      "cenorship": 8823,
      "coordiantion": 8824,
      "awareness": 8825,
      "negatives": 8826,
      "droped": 8827,
      "bases": 8828,
      "hunt": 8829,
      "hydration": 8830,
      "aval": 8831,
      "compli": 8832,
      "questionable": 8833,
      "pretending": 8834,
      "eleph": 8835,
      "dangerously": 8836,
      "controlling": 8837,
      "sexually": 8838,
      "swir": 8839,
      "horn": 8840,
      "ordering": 8841,
      "blog": 8842,
      "cooler": 8843,
      "addict": 8844,
      "complaint": 8845,
      "fourty": 8846,
      "tones": 8847,
      "casual": 8848,
      "graded": 8849,
      "practicality": 8850,
      "ankle": 8851,
      "ugging": 8852,
      "melted": 8853,
      "fitting": 8854,
      "welch": 8855,
      "accessed": 8856,
      "exploring": 8857,
      "celebrities": 8858,
      "clicks": 8859,
      "admitted": 8860,
      "transl": 8861,
      "continuing": 8862,
      "promoting": 8863,
      "melon": 8864,
      "repeating": 8865,
      "bullies": 8866,
      "pulls": 8867,
      "finishing": 8868,
      "logist": 8869,
      "excersizing": 8870,
      "circles": 8871,
      "mixture": 8872,
      "punct": 8873,
      "volume": 8874,
      "absolute": 8875,
      "vulner": 8876,
      "adjusted": 8877,
      "STAT": 8878,
      "receiving": 8879,
      "remained": 8880,
      "hallways": 8881,
      "funnier": 8882,
      "titles": 8883,
      "discoveries": 8884,
      "static": 8885,
      "status": 8886,
      "duty": 8887,
      "boundaries": 8888,
      "tournament": 8889,
      "Art": 8890,
      "desserts": 8891,
      "LIST": 8892,
      "dirigi": 8893,
      "models": 8894,
      "combination": 8895,
      "frozen": 8896,
      "muscle": 8897,
      "relevant": 8898,
      "dragster": 8899,
      "square": 8900,
      "recognizes": 8901,
      "cakes": 8902,
      "sprinted": 8903,
      "intresting": 8904,
      "strictly": 8905,
      "channels": 8906,
      "Consequently": 8907,
      "oppinions": 8908,
      "pioneers": 8909,
      "enemy": 8910,
      "bundle": 8911,
      "hobby": 8912,
      "sensitive": 8913,
      "convient": 8914,
      "methods": 8915,
      "bravery": 8916,
      "wander": 8917,
      "probally": 8918,
      "pillow": 8919,
      "pillows": 8920,
      "priority": 8921,
      "discrimination": 8922,
      "consume": 8923,
      "punishment": 8924,
      "edias": 8925,
      "leaned": 8926,
      "WITH": 8927,
      "Finding": 8928,
      "wisdom": 8929,
      "artical": 8930,
      "desperation": 8931,
      "goofy": 8932,
      "BUT": 8933,
      "disappointing": 8934,
      "intelleg": 8935,
      "Obstacles": 8936,
      "scooter": 8937,
      "embrace": 8938,
      "Frame": 8939,
      "preparing": 8940,
      "tongue": 8941,
      "amusement": 8942,
      "trampoline": 8943,
      "unbelievable": 8944,
      "disapointed": 8945,
      "avalible": 8946,
      "kindergarten": 8947,
      "fierce": 8948,
      "serenity": 8949,
      "champion": 8950,
      "florida": 8951,
      "detrimental": 8952,
      "trigger": 8953,
      "Flammable": 8954,
      "Rawedia": 8955,
      "!\".": 8956,
      "!!\"": 8957,
      "\"…": 8958,
      ".’’": 8959,
      "Actually": 8960,
      "Down": 8961,
      "Ge": 8962,
      "Great": 8963,
      "Ha": 8964,
      "Jobs": 8965,
      "Mother": 8966,
      "Media": 8967,
      "Mainly": 8968,
      "PAR": 8969,
      "Rel": 8970,
      "Sports": 8971,
      "YC": 8972,
      "akes": 8973,
      "cation": 8974,
      "dre": 8975,
      "dates": 8976,
      "fs": 8977,
      "faded": 8978,
      "fading": 8979,
      "glimp": 8980,
      "gaur": 8981,
      "hr": 8982,
      "ius": 8983,
      "iles": 8984,
      "jack": 8985,
      "knot": 8986,
      "kip": 8987,
      "lou": 8988,
      "lend": 8989,
      "mation": 8990,
      "mati": 8991,
      "mability": 8992,
      "narrow": 8993,
      "oF": 8994,
      "pau": 8995,
      "pals": 8996,
      "poured": 8997,
      "ray": 8998,
      "rag": 8999,
      "sse": 9000,
      "sadd": 9001,
      "tum": 9002,
      "ucted": 9003,
      "va": 9004,
      "vin": 9005,
      "voted": 9006,
      "ws": 9007,
      "zom": 9008,
      "‘@": 9009,
      "thre": 9010,
      "income": 9011,
      "inches": 9012,
      "regain": 9013,
      "restr": 9014,
      "resolve": 9015,
      "researched": 9016,
      "erch": 9017,
      "eny": 9018,
      "enom": 9019,
      "enforce": 9020,
      "orient": 9021,
      "ita": 9022,
      "itched": 9023,
      "beer": 9024,
      "beut": 9025,
      "belli": 9026,
      "arche": 9027,
      "stim": 9028,
      "ador": 9029,
      "chal": 9030,
      "chop": 9031,
      "chart": 9032,
      "chased": 9033,
      "chasing": 9034,
      "lick": 9035,
      "meter": 9036,
      "rican": 9037,
      "accross": 9038,
      "comical": 9039,
      "outs": 9040,
      "shi": 9041,
      "shr": 9042,
      "shining": 9043,
      "nets": 9044,
      "enters": 9045,
      "doe": 9046,
      "dosn": 9047,
      "unit": 9048,
      "unning": 9049,
      "unaware": 9050,
      "sheets": 9051,
      "golf": 9052,
      "excus": 9053,
      "immoral": 9054,
      "bugs": 9055,
      "uproar": 9056,
      "plau": 9057,
      "plates": 9058,
      "grav": 9059,
      "sages": 9060,
      "urature": 9061,
      "detention": 9062,
      "enses": 9063,
      "gio": 9064,
      "fries": 9065,
      "byes": 9066,
      "brary": 9067,
      "spy": 9068,
      "tying": 9069,
      "Inside": 9070,
      "ieties": 9071,
      "facial": 9072,
      "Thousand": 9073,
      "happieness": 9074,
      "whos": 9075,
      "eventhough": 9076,
      "offensively": 9077,
      "bolt": 9078,
      "backpack": 9079,
      "angle": 9080,
      "pray": 9081,
      "quer": 9082,
      "rougher": 9083,
      "musical": 9084,
      "agon": 9085,
      "Hello": 9086,
      "starters": 9087,
      "studing": 9088,
      "forming": 9089,
      "itters": 9090,
      "cod": 9091,
      "lovely": 9092,
      "chew": 9093,
      "handled": 9094,
      "viors": 9095,
      "speach": 9096,
      "informing": 9097,
      "ATER": 9098,
      "woken": 9099,
      "discre": 9100,
      "steer": 9101,
      "steak": 9102,
      "carpet": 9103,
      "passenger": 9104,
      "temper": 9105,
      "tempting": 9106,
      "togetherness": 9107,
      "exercises": 9108,
      "proposed": 9109,
      "partment": 9110,
      "pharagraph": 9111,
      "phenom": 9112,
      "classmate": 9113,
      "courages": 9114,
      "flamible": 9115,
      "flammability": 9116,
      "chatrooms": 9117,
      "flowed": 9118,
      "advis": 9119,
      "fortune": 9120,
      "Finnaly": 9121,
      "nerve": 9122,
      "entific": 9123,
      "azz": 9124,
      "confusing": 9125,
      "Unfortun": 9126,
      "rainbow": 9127,
      "deterior": 9128,
      "cooks": 9129,
      "rows": 9130,
      "sunshine": 9131,
      "touchy": 9132,
      "reminding": 9133,
      "decade": 9134,
      "attended": 9135,
      "texted": 9136,
      "approval": 9137,
      "holo": 9138,
      "Chat": 9139,
      "presentations": 9140,
      "ailing": 9141,
      "fitness": 9142,
      "raite": 9143,
      "imitated": 9144,
      "regards": 9145,
      "costly": 9146,
      "devoted": 9147,
      "characteristics": 9148,
      "symbols": 9149,
      "swings": 9150,
      "beats": 9151,
      "honesty": 9152,
      "rewards": 9153,
      "Anyway": 9154,
      "Anyways": 9155,
      "Anybody": 9156,
      "profile": 9157,
      "occuring": 9158,
      "package": 9159,
      "sexuality": 9160,
      "posting": 9161,
      "improvement": 9162,
      "IND": 9163,
      "latter": 9164,
      "universal": 9165,
      "judged": 9166,
      "doubtful": 9167,
      "Thankfully": 9168,
      "umbled": 9169,
      "deaths": 9170,
      "Mean": 9171,
      "awkwardly": 9172,
      "fictional": 9173,
      "brief": 9174,
      "brighter": 9175,
      "defend": 9176,
      "wooden": 9177,
      "threatened": 9178,
      "labr": 9179,
      "titled": 9180,
      "nineteen": 9181,
      "practices": 9182,
      "Saying": 9183,
      "umbia": 9184,
      "fulfilling": 9185,
      "tourist": 9186,
      "backgrounds": 9187,
      "LIKE": 9188,
      "disturbed": 9189,
      "persuasive": 9190,
      "recorded": 9191,
      "hatred": 9192,
      "dragged": 9193,
      "cycleist": 9194,
      "fancy": 9195,
      "cherry": 9196,
      "cherished": 9197,
      "wheels": 9198,
      "cafe": 9199,
      "firm": 9200,
      "terrified": 9201,
      "terrifying": 9202,
      "Friend": 9203,
      "dirigble": 9204,
      "searches": 9205,
      "gathering": 9206,
      "attract": 9207,
      "tickling": 9208,
      "pinat": 9209,
      "obtained": 9210,
      "purely": 9211,
      "suspic": 9212,
      "Probably": 9213,
      "dissap": 9214,
      "groceries": 9215,
      "biography": 9216,
      "liberty": 9217,
      "director": 9218,
      "tropical": 9219,
      "guidelines": 9220,
      "knowledgable": 9221,
      "Interacting": 9222,
      "broaden": 9223,
      "experiments": 9224,
      "adicted": 9225,
      "homesickness": 9226,
      "princi": 9227,
      "peopel": 9228,
      "clouds": 9229,
      "assistance": 9230,
      "Happiness": 9231,
      "poop": 9232,
      "maneuvered": 9233,
      "department": 9234,
      "offesive": 9235,
      "calculator": 9236,
      "papa": 9237,
      "seventeen": 9238,
      "simulations": 9239,
      "ethnicity": 9240,
      "succesful": 9241,
      "creek": 9242,
      "squirrel": 9243,
      "weaken": 9244,
      "apprici": 9245,
      "nostalgic": 9246,
      "SPEED": 9247,
      "phase": 9248,
      "rejected": 9249,
      "concider": 9250,
      "inevitable": 9251,
      "Created": 9252,
      "POSTED": 9253,
      "assembly": 9254,
      "Memories": 9255,
[...]
